node {
  name: "global_step/Initializer/zeros"
  op: "Const"
  attr {
    key: "_class"
    value {
      list {
        s: "loc:@global_step"
      }
    }
  }
  attr {
    key: "_output_shapes"
    value {
      list {
        shape {
        }
      }
    }
  }
  attr {
    key: "dtype"
    value {
      type: DT_INT64
    }
  }
  attr {
    key: "value"
    value {
      tensor {
        dtype: DT_INT64
        tensor_shape {
        }
        int64_val: 0
      }
    }
  }
}
node {
  name: "global_step"
  op: "VarHandleOp"
  attr {
    key: "_class"
    value {
      list {
        s: "loc:@global_step"
      }
    }
  }
  attr {
    key: "_output_shapes"
    value {
      list {
        shape {
        }
      }
    }
  }
  attr {
    key: "container"
    value {
      s: ""
    }
  }
  attr {
    key: "dtype"
    value {
      type: DT_INT64
    }
  }
  attr {
    key: "shape"
    value {
      shape {
      }
    }
  }
  attr {
    key: "shared_name"
    value {
      s: "global_step"
    }
  }
}
node {
  name: "global_step/IsInitialized/VarIsInitializedOp"
  op: "VarIsInitializedOp"
  input: "global_step"
  attr {
    key: "_output_shapes"
    value {
      list {
        shape {
        }
      }
    }
  }
}
node {
  name: "global_step/Assign"
  op: "AssignVariableOp"
  input: "global_step"
  input: "global_step/Initializer/zeros"
  attr {
    key: "dtype"
    value {
      type: DT_INT64
    }
  }
}
node {
  name: "global_step/Read/ReadVariableOp"
  op: "ReadVariableOp"
  input: "global_step"
  attr {
    key: "_output_shapes"
    value {
      list {
        shape {
        }
      }
    }
  }
  attr {
    key: "dtype"
    value {
      type: DT_INT64
    }
  }
}
node {
  name: "global_step/VarIsInitializedOp"
  op: "VarIsInitializedOp"
  input: "global_step"
  attr {
    key: "_output_shapes"
    value {
      list {
        shape {
        }
      }
    }
  }
}
node {
  name: "global_step/cond"
  op: "If"
  input: "global_step/VarIsInitializedOp"
  input: "global_step"
  input: "global_step/Initializer/zeros"
  attr {
    key: "Tcond"
    value {
      type: DT_BOOL
    }
  }
  attr {
    key: "Tin"
    value {
      list {
        type: DT_RESOURCE
        type: DT_INT64
      }
    }
  }
  attr {
    key: "Tout"
    value {
      list {
        type: DT_INT64
      }
    }
  }
  attr {
    key: "_lower_using_switch_merge"
    value {
      b: true
    }
  }
  attr {
    key: "_output_shapes"
    value {
      list {
        shape {
        }
      }
    }
  }
  attr {
    key: "else_branch"
    value {
      func {
        name: "global_step_cond_false_9778"
      }
    }
  }
  attr {
    key: "output_shapes"
    value {
      list {
        shape {
        }
      }
    }
  }
  attr {
    key: "then_branch"
    value {
      func {
        name: "global_step_cond_true_9777"
      }
    }
  }
}
node {
  name: "global_step/cond/Identity"
  op: "Identity"
  input: "global_step/cond"
  attr {
    key: "T"
    value {
      type: DT_INT64
    }
  }
  attr {
    key: "_output_shapes"
    value {
      list {
        shape {
        }
      }
    }
  }
}
node {
  name: "global_step/add/y"
  op: "Const"
  attr {
    key: "_output_shapes"
    value {
      list {
        shape {
        }
      }
    }
  }
  attr {
    key: "dtype"
    value {
      type: DT_INT64
    }
  }
  attr {
    key: "value"
    value {
      tensor {
        dtype: DT_INT64
        tensor_shape {
        }
        int64_val: 0
      }
    }
  }
}
node {
  name: "global_step/add"
  op: "AddV2"
  input: "global_step/cond/Identity"
  input: "global_step/add/y"
  attr {
    key: "T"
    value {
      type: DT_INT64
    }
  }
  attr {
    key: "_output_shapes"
    value {
      list {
        shape {
        }
      }
    }
  }
}
node {
  name: "normalize_element/component_0"
  op: "Const"
  device: "/device:CPU:0"
  attr {
    key: "_output_shapes"
    value {
      list {
        shape {
          dim {
            size: 655
          }
        }
      }
    }
  }
  attr {
    key: "dtype"
    value {
      type: DT_DOUBLE
    }
  }
  attr {
    key: "value"
    value {
      tensor {
        dtype: DT_DOUBLE
        tensor_shape {
          dim {
            size: 655
          }
        }
        tensor_content: "\000\000\000\000\000\000C@\000\000\000\000\000\000:@\000\000\000\000\000\200A@\000\000\000\000\000\200A@\000\000\000\000\000\200A@\000\000\000\000\000\000K@\000\000\000\000\000\000\000@\000\000\000\000\000\000;@\000\000\000\000\000\000,@\000\000\000\000\000\000\020@\000\000\000\000\000\000M@\000\000\000\000\000\0004@\000\000\000\000\000\200C@\000\000\000\000\000\000,@\000\000\000\000\000\200K@\000\000\000\000\000\000\000@\000\000\000\000\000\000\000@\000\000\000\000\000\000?@\000\000\000\000\000\000?@\000\000\000\000\000\200A@\000\000\000\000\000\000A@\000\000\000\000\000\000.@\000\000\000\000\000\000<@\000\000\000\000\000\000 @\000\000\000\000\000\000C@\000\000\000\000\000\000C@\000\000\000\000\000\0003@\000\000\000\000\000\0003@\000\000\000\000\000\0003@\000\000\000\000\000\000D@\000\000\000\000\000\000D@\000\000\000\000\000\000D@\000\000\000\000\000\200P@\000\000\000\000\000\000<@\000\000\000\000\000\000E@\000\000\000\000\000\000E@\000\000\000\000\000\0005@\000\000\000\000\000\0002@\000\000\000\000\000\000,@\000\000\000\000\000\000D@\000\000\000\000\000\000;@\000\000\000\000\000\000;@\000\000\000\000\000\000\010@\000\000\000\000\000\0003@\000\000\000\000\000\0003@\000\000\000\000\000\0003@\000\000\000\000\000\0003@\000\000\000\000\000\0003@\000\000\000\000\000\0002@\000\000\000\000\000\000\034@\000\000\000\000\000\0005@\000\000\000\000\000\200H@\000\000\000\000\000\000=@\000\000\000\000\000@P@\000\000\000\000\000@P@\000\000\000\000\000\0005@\000\000\000\000\000\200<@\000\000\000\000\000\000\024@\000\000\000\000\000\000&@\000\000\000\000\000\0006@\000\000\000\000\000\000C@\000\000\000\000\000\200F@\000\000\000\000\000\000\020@\000\000\000\000\000\000\020@\000\000\000\000\000\000\020@\000\000\000\000\000\000=@\000\000\000\000\000\0003@\000\000\000\000\000\0001@\000\000\000\000\000\000:@\000\000\000\000\000\000@@\000\000\000\000\000\0000@\000\000\000\000\000\0005@\000\000\000\000\000\000:@\000\000\000\000\000\000@@\000\000\000\000\000\0009@\000\000\000\000\000\0009@\000\000\000\000\000\0009@\217\302\365(\\\217\352?\000\000\000\000\000\000>@\000\000\000\000\000\0006@\000\000\000\000\000\000=@\000\000\000\000\000\000=@\000\000\000\000\000\000<@\000\000\000\000\000\0001@\000\000\000\000\000\200@@\000\000\000\000\000\0000@\000\000\000\000\000\0000@\000\000\000\000\000\0007@\000\000\000\000\000\0008@\000\000\000\000\000\000=@\000\000\000\000\000\0004@\000\000\000\000\000\000G@\000\000\000\000\000\000:@\000\000\000\000\000\200M@\000\000\000\000\000\200M@\000\000\000\000\000\300Q@\000\000\000\000\000\0007@\000\000\000\000\000\000A@\000\000\000\000\000\000A@\000\000\000\000\000\000<@\000\000\000\000\000\000<@\000\000\000\000\000\0005@\000\000\000\000\000\200@@\000\000\000\000\000\200B@\000\000\000\000\000\000<@\000\000\000\000\000\0005@\000\000\000\000\000\0005@\000\000\000\000\000\000C@\000\000\000\000\000\000C@\000\000\000\000\000\200G@\000\000\000\000\000\000-@\000\000\000\000\000\0006@\000\000\000\000\000\0004@\000\000\000\000\000\0001@\000\000\000\000\000\0005@\000\000\000\000\000\240Q@\000\000\000\000\000\000=@\000\000\000\000\000\0008@\000\000\000\000\000\000\000@\000\000\000\000\000\0005@\000\000\000\000\000\0005@\000\000\000\000\000@@@\000\000\000\000\000@@@\000\000\000\000\000\000K@\000\000\000\000\000\000(@\000\000\000\000\000\000(@\000\000\000\000\000\0008@\000\000\000\000\000\0008@\000\000\000\000\000\200F@\000\000\000\000\000\200@@\000\000\000\000\000\0004@\000\000\000\000\000\200G@\000\000\000\000\000\000=@\000\000\000\000\000\0009@\000\000\000\000\000\0007@\000\000\000\000\000\0003@\000\000\000\000\000\200B@\000\000\000\000\000\0000@\000\000\000\000\000\0008@\000\000\000\000\000\0008@\000\000\000\000\000\0006@\000\000\000\000\000\0008@\000\000\000\000\000\0003@\000\000\000\000\000\0002@\000\000\000\000\000\0003@\000\000\000\000\000\000;@\000\000\000\000\000\000\"@\000\000\000\000\000@B@\000\000\000\000\000\000E@\000\000\000\000\000\200I@\000\000\000\000\000\0006@\000\000\000\000\000\300K@\000\000\000\000\000@D@\000\000\000\000\000@D@\000\000\000\000\000\200I@\000\000\000\000\000\0000@\000\000\000\000\000\000>@\000\000\000\000\000\000>@\000\000\000\000\000\000>@\000\000\000\000\000\000F@\000\000\000\000\000\000D@\000\000\000\000\000\000:@\000\000\000\000\000\0001@\000\000\000\000\000\000\360?\000\000\000\000\000\000\"@\000\000\000\000\000\000\"@\000\000\000\000\000\200F@\000\000\000\000\000\200F@\000\000\000\000\000\000<@\000\000\000\000\000\200N@\000\000\000\000\000\000\020@\000\000\000\000\000\000\360?\000\000\000\000\000\0005@\000\000\000\000\000\000L@\000\000\000\000\000\0002@\000\000\000\000\000\0002@\000\000\000\000\000\000I@\000\000\000\000\000\000>@\000\000\000\000\000\000B@\000\000\000\000\000\000B@\000\000\000\000\000\000B@\000\000\000\000\000\000\"@\000\000\000\000\000\000\360?\000\000\000\000\000\000\020@\000\000\000\000\000\000\020@\000\000\000\000\000\000\020@\000\000\000\000\000\200F@\000\000\000\000\000\000D@\000\000\000\000\000\000B@\000\000\000\000\000\000@@\000\000\000\000\000\0003@\000\000\000\000\000\0003@\000\000\000\000\000\000\010@\000\000\000\000\000\000F@\000\000\000\000\000\000M@\000\000\000\000\000\000M@\000\000\000\000\000\000E@\000\000\000\000\000\000E@\000\000\000\000\000\0008@\000\000\000\000\000\000<@\000\000\000\000\000\000<@\000\000\000\000\000\000A@\000\000\000\000\000\300F@\000\000\000\000\000\0002@\000\000\000\000\000\000\000@\000\000\000\000\000\000@@\000\000\000\000\000\000:@\000\000\000\000\000\0000@\000\000\000\000\000\000D@\000\000\000\000\000\0008@\000\000\000\000\000\200A@\000\000\000\000\000\0006@\000\000\000\000\000\000>@\000\000\000\000\000\000>@\000\000\000\000\000\000?@\000\000\000\000\000\000;@\000\000\000\000\000\000E@\000\000\000\000\000\000@@\000\000\000\000\000\000>@\000\000\000\000\000\0000@\000\000\000\000\000\000;@\000\000\000\000\000\200I@\000\000\000\000\000\200I@\000\000\000\000\000\000C@\000\000\000\000\000\0006@\000\000\000\000\000\0003@\000\000\000\000\000\2004@\000\000\000\000\000\0002@\000\000\000\000\000\0002@\000\000\000\000\000\200A@\000\000\000\000\000\000=@\000\000\000\000\000\200M@\000\000\000\000\000\000\024@\000\000\000\000\000\0008@\000\000\000\000\000\0008@\000\000\000\000\000\000F@\000\000\000\000\000\000 @\000\000\000\000\000\0003@\000\000\000\000\000\200@@\000\000\000\000\000\200@@\000\000\000\000\000\200@@\000\000\000\000\000\000=@\000\000\000\000\000\0006@\000\000\000\000\000\000>@\000\000\000\000\000\000F@\000\000\000\000\000\0009@\000\000\000\000\000\0008@\000\000\000\000\000\200B@\000\000\000\000\000\000K@\000\000\000\000\000\000K@\000\000\000\000\000\000=@\000\000\000\000\000\000O@\000\000\000\000\000\000>@\000\000\000\000\000\200D@\000\000\000\000\000\000=@\000\000\000\000\000\000=@\000\000\000\000\000\000>@\000\000\000\000\000\200A@\000\000\000\000\000\000I@\000\000\000\000\000\000I@\000\000\000\000\000\000\010@\000\000\000\000\000\000J@\000\000\000\000\000\000D@\000\000\000\000\000\000D@\000\000\000\000\000\000B@\000\000\000\000\000\0000@\000\000\000\000\000\0009@\000\000\000\000\000\000M@\000\000\000\000\000\200A@\000\000\000\000\000\200A@\000\000\000\000\000\0009@\000\000\000\000\000\200D@\000\000\000\000\000\200B@\000\000\000\000\000\200B@\000\000\000\000\000\200O@\000\000\000\000\000\200F@\000\000\000\000\000\200F@\000\000\000\000\000\000\034@\000\000\000\000\000\200A@\000\000\000\000\000@P@\000\000\000\000\000\000<@\000\000\000\000\000\0000@\000\000\000\000\000\0003@\000\000\000\000\000\0003@\000\000\000\000\000\200@@\000\000\000\000\000\000>@\000\000\000\000\000\0006@\000\000\000\000\000\000E@\000\000\000\000\000\0006@\000\000\000\000\000\000:@\000\000\000\000\000\0003@\000\000\000\000\000\000B@\000\000\000\000\000\0008@\000\000\000\000\000\0008@\000\000\000\000\000\0008@\000\000\000\000\000\2007@\000\000\000\000\000\000\000@\000\000\000\000\000\000\000@\000\000\000\000\000\000I@\000\000\000\000\000\000I@\000\000\000\000\000\000I@\000\000\000\000\000\0003@\000\000\000\000\000\0003@\000\000\000\000\000\0003@q=\n\327\243p\355?q=\n\327\243p\355?\000\000\000\000\000\0001@\000\000\000\000\000\000>@\000\000\000\000\000\000>@\000\000\000\000\000\0008@\000\000\000\000\000\0002@\000\000\000\000\000\000:@\000\000\000\000\000\000<@\000\000\000\000\000\200E@\000\000\000\000\000\000:@\000\000\000\000\000\0008@\000\000\000\000\000\000K@\000\000\000\000\000\000?@\000\000\000\000\000\000D@\000\000\000\000\000\0006@\000\000\000\000\000\000;@\000\000\000\000\000\000>@\000\000\000\000\000\0006@\000\000\000\000\000\0006@\000\000\000\000\000\000B@\000\000\000\000\000\200N@\000\000\000\000\000\000B@\000\000\000\000\000\000?@\000\000\000\000\000\0000@\000\000\000\000\000\0000@\000\000\000\000\000\300F@\000\000\000\000\000\000C@\000\000\000\000\000\0000@\000\000\000\000\000\0000@\000\000\000\000\000\0000@\000\000\000\000\000\000=@\000\000\000\000\000\200D@\000\000\000\000\000\200F@\000\000\000\000\000\200F@\000\000\000\000\000\000\000@\000\000\000\000\000\0008@\000\000\000\000\000\000<@\000\000\000\000\000\0009@\000\000\000\000\000\000B@\000\000\000\000\000\0008@\000\000\000\000\000\000D@\000\000\000\000\000\000D@\000\000\000\000\000\000\010@\000\000\000\000\000\000E@\000\000\000\000\000\0007@\000\000\000\000\000\0007@\000\000\000\000\000\000.@\000\000\000\000\000\0009@\000\000\000\000\000\0009@\000\000\000\000\000\000<@\000\000\000\000\000\0006@\000\000\000\000\000\000C@\000\000\000\000\000\000C@\000\000\000\000\000\000C@\000\000\000\000\000\000D@\000\000\000\000\000\000=@\000\000\000\000\000\200F@\000\000\000\000\000\200A@\000\000\000\000\000\200A@\000\000\000\000\000\000>@\000\000\000\000\000\000N@\000\000\000\000\000\000N@\000\000\000\000\000\000N@\000\000\000\000\000\0008@\000\000\000\000\000\0009@\000\000\000\000\000\0002@\000\000\000\000\000\0003@\000\000\000\000\000\0006@\000\000\000\000\000\000\010@\000\000\000\000\000\000\010@\000\000\000\000\000\0006@\000\000\000\000\000\000;@\000\000\000\000\000\0004@\000\000\000\000\000\0003@\000\000\000\000\000\000E@\000\000\000\000\000\000\360?\000\000\000\000\000\000@@\000\000\000\000\000\200A@\000\000\000\000\000\200A@\000\000\000\000\000\0002@\000\000\000\000\000\000\360?\000\000\000\000\000\000B@\000\000\000\000\000\000B@\000\000\000\000\000\0001@\000\000\000\000\000\000B@\000\000\000\000\000\0005@\000\000\000\000\000\000<@\000\000\000\000\000\0007@\000\000\000\000\000\0008@\000\000\000\000\000\0006@\000\000\000\000\000\000?@\000\000\000\000\000\000G@\000\000\000\000\000\0007@\000\000\000\000\000\000<@\000\000\000\000\000\200C@\000\000\000\000\000\000:@\000\000\000\000\000\0005@\000\000\000\000\000\000<@\000\000\000\000\000\0004@\000\000\000\000\000\000A@\000\000\000\000\000\200I@\000\000\000\000\000\000\010@\000\000\000\000\000\0005@\000\000\000\000\000\0005@\000\000\000\000\000\0005@\000\000\000\000\000\0005@\000\000\000\000\000\200@@\000\000\000\000\000\200@@\000\000\000\000\000\000F@\000\000\000\000\000\000F@\000\000\000\000\000\000A@\000\000\000\000\000\0002@\000\000\000\000\000\000>@\000\000\000\000\000\000$@\000\000\000\000\000\000$@\000\000\000\000\000\0005@\000\000\000\000\000\000=@\000\000\000\000\000\000<@\000\000\000\000\000\0002@\000\000\000\000\000\0002@\000\000\000\000\000\000<@\000\000\000\000\000\0003@\000\000\000\000\000\0003@\000\000\000\000\000\000@@\000\000\000\000\000\000<@\000\000\000\000\000\000<@\000\000\000\000\000\000E@\000\000\000\000\000\0001@\000\000\000\000\000\000I@\000\000\000\000\000\000,@\000\000\000\000\000\0005@\000\000\000\000\000\0008@\000\000\000\000\000\000P@\000\000\000\000\000\000?@\000\000\000\000\000\200F@\000\000\000\000\000\0004@\000\000\000\000\000\0009@\000\000\000\000\000\000<@\000\000\000\000\000\000<@\000\000\000\000\000\000\020@\000\000\000\000\000\000*@\000\000\000\000\000\000A@\000\000\000\000\000\000\024@\000\000\000\000\000\000J@\000\000\000\000\000\000B@\000\000\000\000\000\000B@\000\000\000\000\000\000>@\000\000\000\000\000\200H@\000\000\000\000\000\200H@\000\000\000\000\000\000=@\000\000\000\000\000@P@\000\000\000\000\000@P@\000\000\000\000\000\000I@\000\000\000\000\000\000I@\000\000\000\000\000\000H@\000\000\000\000\000\000A@\000\000\000\000\000\200G@\000\000\000\000\000\000H@\000\000\000\000\000\000H@\000\000\000\000\000\000C@\000\000\000\000\000\000C@\000\000\000\000\000\000L@\000\000\000\000\000\000L@\000\000\000\000\000\000\350?\000\000\000\000\000\000\350?\000\000\000\000\000\000C@\000\000\000\000\000\200@@\000\000\000\000\000\0007@\000\000\000\000\000\0006@\000\000\000\000\000\0006@\000\000\000\000\000\000A@\000\000\000\000\000\000=@\000\000\000\000\000\0006@\000\000\000\000\000\000\000@\000\000\000\000\000\000\"@\000\000\000\000\000\000\"@\000\000\000\000\000\000I@\000\000\000\000\000\200O@\000\000\000\000\000\0009@\000\000\000\000\000\0009@\000\000\000\000\000\200A@\000\000\000\000\000\000M@\000\000\000\000\000\000>@\000\000\000\000\000\000\"@\000\000\000\000\000\000\"@\000\000\000\000\000\0005@\000\000\000\000\000\200K@\000\000\000\000\000\300Q@\000\000\000\000\000\0005@\000\000\000\000\000\0005@\000\000\000\000\000\000K@\000\000\000\000\000\000K@\000\000\000\000\000\0009@\000\000\000\000\000\0008@\000\000\000\000\000\0001@\000\000\000\000\000\0005@\000\000\000\000\000\0005@\000\000\000\000\000\200B@\000\000\000\000\000\0000@\000\000\000\000\000\0002@\000\000\000\000\000\200@@\000\000\000\000\000\200@@\000\000\000\000\000\000<@\000\000\000\000\000\000:@\000\000\000\000\000\000=@\000\000\000\000\000\000=@\000\000\000\000\000\000B@\000\000\000\000\000\000K@\000\000\000\000\000\0008@\000\000\000\000\000\200G@\000\000\000\000\000\000A@\000\000\000\000\000\000A@\000\000\000\000\000\000B@\000\000\000\000\000\000@@\000\000\000\000\000\000>@\000\000\000\000\000\0006@\000\000\000\000\000\0006@\000\000\000\000\000\000F@\000\000\000\000\000\000F@\000\000\000\000\000@D@\000\000\000\000\000\000I@\000\000\000\000\000\000I@\000\000\000\000\000\200C@\000\000\000\000\000\0007@\000\000\000\000\000\000\000@\000\000\000\000\000\000\000@\000\000\000\000\000\0001@\000\000\000\000\000\0001@\000\000\000\000\000\000>@\000\000\000\000\000\000\034@\000\000\000\000\000\200F@\000\000\000\000\000\000>@\000\000\000\000\000\000>@\000\000\000\000\000\0006@\000\000\000\000\000\000B@\000\000\000\000\000\000\"@\000\000\000\000\000\000&@\000\000\000\000\000\000@@\000\000\000\000\000\000I@\000\000\000\000\000\000P@\000\000\000\000\000\0003@\000\000\000\000\000\0003@\000\000\000\000\000\200@@\000\000\000\000\000\000 @\000\000\000\000\000\0001@\000\000\000\000\000\000;@\000\000\000\000\000\000;@\000\000\000\000\000\0006@\000\000\000\000\000\0006@\000\000\000\000\000\000O@\000\000\000\000\000\000H@\000\000\000\000\000\000H@\000\000\000\000\000\200C@\000\000\000\000\000\000B@\000\000\000\000\000\000B@\000\000\000\000\000\000D@\000\000\000\000\000\000<@\000\000\000\000\000\000<@\000\000\000\000\000\000<@\000\000\000\000\000\0008@\000\000\000\000\000\0003@\000\000\000\000\000\000=@\000\000\000\000\000\000=@\000\000\000\000\000\000@@\000\000\000\000\000\000O@\000\000\000\000\000\200J@\000\000\000\000\000\000B@\000\000\000\000\000\000B@\000\000\000\000\000\0000@\000\000\000\000\000\0003@\000\000\000\000\000\000A@\000\000\000\000\000\200C@\000\000\000\000\000\200C@\000\000\000\000\000\000@@\000\000\000\000\000\0009@\000\000\000\000\000\200C@\000\000\000\000\000\000K@\000\000\000\000\000\000B@\000\000\000\000\000\000B@\000\000\000\000\000\0002@\000\000\000\000\000\200G@\000\000\000\000\000\000N@\000\000\000\000\000\0006@\000\000\000\000\000\0006@\000\000\000\000\000\200A@\000\000\000\000\000\000J@\000\000\000\000\000\200G@\000\000\000\000\000\200G@\000\000\000\000\000\200B@\000\000\000\000\000\000B@\000\000\000\000\000\000B@\000\000\000\000\000\200H@\000\000\000\000\000\200H@\000\000\000\000\000\200H@\000\000\000\000\000\0008@\000\000\000\000\000\0008@\000\000\000\000\000\0008@\000\000\000\000\000\000F@\000\000\000\000\000\200A@\000\000\000\000\000\000B@\000\000\000\000\000\000>@\000\000\000\000\000\000;@\000\000\000\000\000\0006@\000\000\000\000\000\000D@\000\000\000\000\000\200C@\000\000\000\000\000\200C@\000\000\000\000\000\200C@\000\000\000\000\000\200C@\000\000\000\000\000\200A@\000\000\000\000\000\0008@\000\000\000\000\000\000A@\000\000\000\000\000\000:@\000\000\000\000\000\000\020@\000\000\000\000\000\000:@\000\000\000\000\000\000;@\000\000\000\000\000\000E@\000\000\000\000\000\0004@\000\000\000\000\000\0005@\000\000\000\000\000\0005@\000\000\000\000\000\200N@\000\000\000\000\000\200L@\000\000\000\000\000\0005@\000\000\000\000\000\000:@\000\000\000\000\000\000:@\000\000\000\000\000\000T@\000\000\000\000\000\200I@\000\000\000\000\000\000@@\000\000\000\000\000\000@@\000\000\000\000\000\000\"@\000\000\000\000\000\000<@\000\000\000\000\000\000@@\000\000\000\000\000\000?@\000\000\000\000\000\200D@\000\000\000\000\000\200D@\000\000\000\000\000\0004@\000\000\000\000\000\0008@\000\000\000\000\000\000\000@\000\000\000\000\000\000\000@\000\000\000\000\000\000\350?\000\000\000\000\000\000H@\000\000\000\000\000\0003@\000\000\000\000\000\000L@\000\000\000\000\000\000L@\000\000\000\000\000\0007@\000\000\000\000\000\0007@\000\000\000\000\000\0002@\000\000\000\000\000\0005@\000\000\000\000\000\0005@\000\000\000\000\000\0002@\000\000\000\000\000\0008@"
      }
    }
  }
}
node {
  name: "normalize_element/component_1"
  op: "Const"
  device: "/device:CPU:0"
  attr {
    key: "_output_shapes"
    value {
      list {
        shape {
          dim {
            size: 655
          }
        }
      }
    }
  }
  attr {
    key: "dtype"
    value {
      type: DT_STRING
    }
  }
  attr {
    key: "value"
    value {
      tensor {
        dtype: DT_STRING
        tensor_shape {
          dim {
            size: 655
          }
        }
        string_val: "C85"
        string_val: "C85"
        string_val: "C123"
        string_val: "C123"
        string_val: "C123"
        string_val: "E46"
        string_val: "E46"
        string_val: "E46"
        string_val: "E46"
        string_val: "G6"
        string_val: "C103"
        string_val: "C103"
        string_val: "C103"
        string_val: "C103"
        string_val: "C103"
        string_val: "C103"
        string_val: "C103"
        string_val: "C103"
        string_val: "C103"
        string_val: "C103"
        string_val: "D56"
        string_val: "D56"
        string_val: "A6"
        string_val: "A6"
        string_val: "A6"
        string_val: "A6"
        string_val: "C23 C25 C27"
        string_val: "C23 C25 C27"
        string_val: "C23 C25 C27"
        string_val: "C23 C25 C27"
        string_val: "B78"
        string_val: "B78"
        string_val: "B78"
        string_val: "B78"
        string_val: "B78"
        string_val: "B78"
        string_val: "B78"
        string_val: "B78"
        string_val: "B78"
        string_val: "B78"
        string_val: "B78"
        string_val: "B78"
        string_val: "B78"
        string_val: "B78"
        string_val: "B78"
        string_val: "B78"
        string_val: "B78"
        string_val: "B78"
        string_val: "B78"
        string_val: "B78"
        string_val: "B78"
        string_val: "D33"
        string_val: "D33"
        string_val: "B30"
        string_val: "C52"
        string_val: "C52"
        string_val: "C52"
        string_val: "C52"
        string_val: "C52"
        string_val: "C52"
        string_val: "B28"
        string_val: "C83"
        string_val: "C83"
        string_val: "C83"
        string_val: "C83"
        string_val: "F33"
        string_val: "F33"
        string_val: "F33"
        string_val: "F33"
        string_val: "F33"
        string_val: "F33"
        string_val: "F33"
        string_val: "F33"
        string_val: "F33"
        string_val: "F G73"
        string_val: "F G73"
        string_val: "F G73"
        string_val: "F G73"
        string_val: "F G73"
        string_val: "F G73"
        string_val: "F G73"
        string_val: "F G73"
        string_val: "F G73"
        string_val: "F G73"
        string_val: "F G73"
        string_val: "F G73"
        string_val: "F G73"
        string_val: "C23 C25 C27"
        string_val: "C23 C25 C27"
        string_val: "C23 C25 C27"
        string_val: "C23 C25 C27"
        string_val: "E31"
        string_val: "E31"
        string_val: "E31"
        string_val: "E31"
        string_val: "A5"
        string_val: "D10 D12"
        string_val: "D10 D12"
        string_val: "D10 D12"
        string_val: "D10 D12"
        string_val: "D10 D12"
        string_val: "D26"
        string_val: "D26"
        string_val: "D26"
        string_val: "D26"
        string_val: "D26"
        string_val: "D26"
        string_val: "D26"
        string_val: "D26"
        string_val: "C110"
        string_val: "C110"
        string_val: "C110"
        string_val: "C110"
        string_val: "C110"
        string_val: "C110"
        string_val: "C110"
        string_val: "C110"
        string_val: "B58 B60"
        string_val: "B58 B60"
        string_val: "B58 B60"
        string_val: "B58 B60"
        string_val: "B58 B60"
        string_val: "E101"
        string_val: "D26"
        string_val: "D26"
        string_val: "D26"
        string_val: "D26"
        string_val: "F E69"
        string_val: "F E69"
        string_val: "F E69"
        string_val: "F E69"
        string_val: "F E69"
        string_val: "F E69"
        string_val: "F E69"
        string_val: "F E69"
        string_val: "D47"
        string_val: "C123"
        string_val: "C123"
        string_val: "B86"
        string_val: "B86"
        string_val: "B86"
        string_val: "B86"
        string_val: "B86"
        string_val: "B86"
        string_val: "B86"
        string_val: "B86"
        string_val: "B86"
        string_val: "F2"
        string_val: "F2"
        string_val: "F2"
        string_val: "C2"
        string_val: "C2"
        string_val: "C2"
        string_val: "C2"
        string_val: "C2"
        string_val: "C2"
        string_val: "C2"
        string_val: "C2"
        string_val: "C2"
        string_val: "C2"
        string_val: "C2"
        string_val: "C2"
        string_val: "C2"
        string_val: "C2"
        string_val: "C2"
        string_val: "E33"
        string_val: "E33"
        string_val: "E33"
        string_val: "E33"
        string_val: "B19"
        string_val: "B19"
        string_val: "B19"
        string_val: "B19"
        string_val: "A7"
        string_val: "A7"
        string_val: "A7"
        string_val: "C49"
        string_val: "C49"
        string_val: "C49"
        string_val: "C49"
        string_val: "C49"
        string_val: "C49"
        string_val: "F4"
        string_val: "F4"
        string_val: "A32"
        string_val: "A32"
        string_val: "A32"
        string_val: "A32"
        string_val: "A32"
        string_val: "A32"
        string_val: "A32"
        string_val: "A32"
        string_val: "F2"
        string_val: "B4"
        string_val: "B80"
        string_val: "B80"
        string_val: "B80"
        string_val: "B80"
        string_val: "B80"
        string_val: "B80"
        string_val: "B80"
        string_val: "B80"
        string_val: "B80"
        string_val: "B80"
        string_val: "G6"
        string_val: "G6"
        string_val: "G6"
        string_val: "G6"
        string_val: "A31"
        string_val: "A31"
        string_val: "A31"
        string_val: "A31"
        string_val: "A31"
        string_val: "A31"
        string_val: "D36"
        string_val: "D36"
        string_val: "D36"
        string_val: "D15"
        string_val: "D15"
        string_val: "D15"
        string_val: "D15"
        string_val: "D15"
        string_val: "D15"
        string_val: "C93"
        string_val: "C93"
        string_val: "C93"
        string_val: "C93"
        string_val: "C93"
        string_val: "C93"
        string_val: "C83"
        string_val: "C83"
        string_val: "C83"
        string_val: "C83"
        string_val: "C83"
        string_val: "C83"
        string_val: "C83"
        string_val: "C83"
        string_val: "C83"
        string_val: "C83"
        string_val: "C83"
        string_val: "C83"
        string_val: "C83"
        string_val: "C83"
        string_val: "C83"
        string_val: "C78"
        string_val: "C78"
        string_val: "C78"
        string_val: "D35"
        string_val: "D35"
        string_val: "D35"
        string_val: "G6"
        string_val: "C87"
        string_val: "C87"
        string_val: "C87"
        string_val: "C87"
        string_val: "C87"
        string_val: "B77"
        string_val: "B77"
        string_val: "B77"
        string_val: "B77"
        string_val: "B77"
        string_val: "E67"
        string_val: "B94"
        string_val: "B94"
        string_val: "B94"
        string_val: "B94"
        string_val: "B94"
        string_val: "C125"
        string_val: "C99"
        string_val: "C99"
        string_val: "C99"
        string_val: "C99"
        string_val: "C118"
        string_val: "C118"
        string_val: "D7"
        string_val: "D7"
        string_val: "D7"
        string_val: "D7"
        string_val: "D7"
        string_val: "D7"
        string_val: "D7"
        string_val: "D7"
        string_val: "D7"
        string_val: "A19"
        string_val: "A19"
        string_val: "A19"
        string_val: "A19"
        string_val: "A19"
        string_val: "A19"
        string_val: "A19"
        string_val: "B49"
        string_val: "D"
        string_val: "D"
        string_val: "D"
        string_val: "D"
        string_val: "D"
        string_val: "C22 C26"
        string_val: "C106"
        string_val: "B58 B60"
        string_val: "B58 B60"
        string_val: "B58 B60"
        string_val: "B58 B60"
        string_val: "E101"
        string_val: "E101"
        string_val: "C22 C26"
        string_val: "C22 C26"
        string_val: "C65"
        string_val: "C65"
        string_val: "E36"
        string_val: "C54"
        string_val: "B57 B59 B63 B66"
        string_val: "B57 B59 B63 B66"
        string_val: "B57 B59 B63 B66"
        string_val: "B57 B59 B63 B66"
        string_val: "B57 B59 B63 B66"
        string_val: "B57 B59 B63 B66"
        string_val: "B57 B59 B63 B66"
        string_val: "C7"
        string_val: "E34"
        string_val: "E34"
        string_val: "E34"
        string_val: "E34"
        string_val: "E34"
        string_val: "E34"
        string_val: "C32"
        string_val: "C32"
        string_val: "D"
        string_val: "D"
        string_val: "B18"
        string_val: "B18"
        string_val: "C124"
        string_val: "C91"
        string_val: "C91"
        string_val: "C91"
        string_val: "C91"
        string_val: "C2"
        string_val: "E40"
        string_val: "E40"
        string_val: "T"
        string_val: "F2"
        string_val: "C23 C25 C27"
        string_val: "C23 C25 C27"
        string_val: "C23 C25 C27"
        string_val: "C23 C25 C27"
        string_val: "F33"
        string_val: "F33"
        string_val: "F33"
        string_val: "F33"
        string_val: "F33"
        string_val: "F33"
        string_val: "C128"
        string_val: "C128"
        string_val: "C128"
        string_val: "C128"
        string_val: "C128"
        string_val: "E33"
        string_val: "E33"
        string_val: "E33"
        string_val: "E33"
        string_val: "E33"
        string_val: "E33"
        string_val: "E33"
        string_val: "E33"
        string_val: "E33"
        string_val: "E33"
        string_val: "D37"
        string_val: "D37"
        string_val: "D37"
        string_val: "B35"
        string_val: "E50"
        string_val: "E50"
        string_val: "E50"
        string_val: "E50"
        string_val: "E50"
        string_val: "E50"
        string_val: "E50"
        string_val: "C82"
        string_val: "C82"
        string_val: "C82"
        string_val: "C82"
        string_val: "C82"
        string_val: "C82"
        string_val: "C82"
        string_val: "C82"
        string_val: "C82"
        string_val: "C82"
        string_val: "C82"
        string_val: "C82"
        string_val: "C82"
        string_val: "B96 B98"
        string_val: "B96 B98"
        string_val: "B96 B98"
        string_val: "D36"
        string_val: "G6"
        string_val: "G6"
        string_val: "G6"
        string_val: "G6"
        string_val: "G6"
        string_val: "G6"
        string_val: "G6"
        string_val: "G6"
        string_val: "G6"
        string_val: "G6"
        string_val: "G6"
        string_val: "G6"
        string_val: "G6"
        string_val: "G6"
        string_val: "G6"
        string_val: "G6"
        string_val: "G6"
        string_val: "G6"
        string_val: "C78"
        string_val: "C78"
        string_val: "C78"
        string_val: "C78"
        string_val: "C78"
        string_val: "C78"
        string_val: "C78"
        string_val: "C78"
        string_val: "C78"
        string_val: "C78"
        string_val: "C78"
        string_val: "C78"
        string_val: "C78"
        string_val: "C78"
        string_val: "C78"
        string_val: "C78"
        string_val: "C78"
        string_val: "E10"
        string_val: "C52"
        string_val: "C52"
        string_val: "C52"
        string_val: "C52"
        string_val: "E44"
        string_val: "B96 B98"
        string_val: "B96 B98"
        string_val: "B96 B98"
        string_val: "C23 C25 C27"
        string_val: "C23 C25 C27"
        string_val: "C23 C25 C27"
        string_val: "C23 C25 C27"
        string_val: "C23 C25 C27"
        string_val: "C23 C25 C27"
        string_val: "C23 C25 C27"
        string_val: "A34"
        string_val: "A34"
        string_val: "A34"
        string_val: "A34"
        string_val: "C104"
        string_val: "C104"
        string_val: "C104"
        string_val: "C111"
        string_val: "C92"
        string_val: "C92"
        string_val: "C92"
        string_val: "E38"
        string_val: "D21"
        string_val: "D21"
        string_val: "D21"
        string_val: "E12"
        string_val: "E12"
        string_val: "E63"
        string_val: "E63"
        string_val: "E63"
        string_val: "E63"
        string_val: "E63"
        string_val: "E63"
        string_val: "E63"
        string_val: "E63"
        string_val: "E63"
        string_val: "E63"
        string_val: "E63"
        string_val: "D"
        string_val: "D"
        string_val: "A14"
        string_val: "A14"
        string_val: "A14"
        string_val: "A14"
        string_val: "A14"
        string_val: "A14"
        string_val: "A14"
        string_val: "A14"
        string_val: "A14"
        string_val: "B49"
        string_val: "B49"
        string_val: "C93"
        string_val: "B37"
        string_val: "B37"
        string_val: "B37"
        string_val: "B37"
        string_val: "B37"
        string_val: "C30"
        string_val: "C30"
        string_val: "C30"
        string_val: "C30"
        string_val: "D20"
        string_val: "D20"
        string_val: "C22 C26"
        string_val: "C22 C26"
        string_val: "C22 C26"
        string_val: "C22 C26"
        string_val: "C22 C26"
        string_val: "C22 C26"
        string_val: "B79"
        string_val: "C65"
        string_val: "C65"
        string_val: "C65"
        string_val: "C65"
        string_val: "C65"
        string_val: "C65"
        string_val: "C65"
        string_val: "E25"
        string_val: "E25"
        string_val: "E25"
        string_val: "D46"
        string_val: "F33"
        string_val: "F33"
        string_val: "F33"
        string_val: "F33"
        string_val: "B73"
        string_val: "B73"
        string_val: "B73"
        string_val: "B18"
        string_val: "B18"
        string_val: "B18"
        string_val: "B18"
        string_val: "C95"
        string_val: "C95"
        string_val: "C95"
        string_val: "C95"
        string_val: "C95"
        string_val: "C95"
        string_val: "C95"
        string_val: "C95"
        string_val: "C95"
        string_val: "B38"
        string_val: "B38"
        string_val: "B38"
        string_val: "B39"
        string_val: "B22"
        string_val: "B22"
        string_val: "B22"
        string_val: "B22"
        string_val: "C86"
        string_val: "C86"
        string_val: "C86"
        string_val: "C86"
        string_val: "C86"
        string_val: "C86"
        string_val: "C70"
        string_val: "C70"
        string_val: "C70"
        string_val: "C70"
        string_val: "C70"
        string_val: "C70"
        string_val: "A16"
        string_val: "A16"
        string_val: "E67"
        string_val: "E67"
        string_val: "E67"
        string_val: "E67"
        string_val: "E67"
        string_val: "E67"
        string_val: "E67"
        string_val: "E67"
        string_val: "E67"
        string_val: "E67"
        string_val: "E67"
        string_val: "E67"
        string_val: "E67"
        string_val: "C101"
        string_val: "E25"
        string_val: "E25"
        string_val: "E25"
        string_val: "E25"
        string_val: "E25"
        string_val: "E44"
        string_val: "E44"
        string_val: "E44"
        string_val: "E44"
        string_val: "C68"
        string_val: "C68"
        string_val: "A10"
        string_val: "A10"
        string_val: "E68"
        string_val: "E68"
        string_val: "B41"
        string_val: "B41"
        string_val: "B41"
        string_val: "B41"
        string_val: "D20"
        string_val: "D20"
        string_val: "D20"
        string_val: "D20"
        string_val: "D20"
        string_val: "D20"
        string_val: "D20"
        string_val: "D20"
        string_val: "A20"
        string_val: "A20"
        string_val: "A20"
        string_val: "A20"
        string_val: "A20"
        string_val: "A20"
        string_val: "A20"
        string_val: "A20"
        string_val: "A20"
        string_val: "A20"
        string_val: "C125"
        string_val: "C125"
        string_val: "C125"
        string_val: "C125"
        string_val: "C125"
        string_val: "C125"
        string_val: "C125"
        string_val: "C125"
        string_val: "C125"
        string_val: "F4"
        string_val: "F4"
        string_val: "F4"
        string_val: "D19"
        string_val: "D19"
        string_val: "D19"
        string_val: "D19"
        string_val: "D50"
        string_val: "D50"
        string_val: "D9"
        string_val: "D9"
        string_val: "D9"
        string_val: "A23"
        string_val: "A23"
        string_val: "B50"
        string_val: "B50"
        string_val: "B50"
        string_val: "B50"
        string_val: "B50"
        string_val: "B50"
        string_val: "B50"
        string_val: "B50"
        string_val: "B50"
        string_val: "B35"
        string_val: "B35"
        string_val: "B35"
        string_val: "B35"
        string_val: "D33"
        string_val: "D33"
        string_val: "A26"
        string_val: "A26"
        string_val: "A26"
        string_val: "A26"
        string_val: "A26"
        string_val: "A26"
        string_val: "A26"
        string_val: "A26"
        string_val: "A26"
      }
    }
  }
}
node {
  name: "normalize_element/component_2"
  op: "Const"
  device: "/device:CPU:0"
  attr {
    key: "_output_shapes"
    value {
      list {
        shape {
          dim {
            size: 655
          }
        }
      }
    }
  }
  attr {
    key: "dtype"
    value {
      type: DT_STRING
    }
  }
  attr {
    key: "value"
    value {
      tensor {
        dtype: DT_STRING
        tensor_shape {
          dim {
            size: 655
          }
        }
        string_val: "C"
        string_val: "S"
        string_val: "S"
        string_val: "S"
        string_val: "Q"
        string_val: "S"
        string_val: "S"
        string_val: "S"
        string_val: "C"
        string_val: "S"
        string_val: "S"
        string_val: "S"
        string_val: "S"
        string_val: "S"
        string_val: "S"
        string_val: "Q"
        string_val: "S"
        string_val: "S"
        string_val: "C"
        string_val: "S"
        string_val: "S"
        string_val: "Q"
        string_val: "S"
        string_val: "S"
        string_val: "S"
        string_val: "C"
        string_val: "S"
        string_val: "Q"
        string_val: "S"
        string_val: "C"
        string_val: "C"
        string_val: "Q"
        string_val: "S"
        string_val: "C"
        string_val: "S"
        string_val: "C"
        string_val: "S"
        string_val: "S"
        string_val: "C"
        string_val: "S"
        string_val: "S"
        string_val: "C"
        string_val: "C"
        string_val: "Q"
        string_val: "S"
        string_val: "Q"
        string_val: "Q"
        string_val: "C"
        string_val: "S"
        string_val: "S"
        string_val: "S"
        string_val: "C"
        string_val: "S"
        string_val: "C"
        string_val: "S"
        string_val: "S"
        string_val: "C"
        string_val: "S"
        string_val: "S"
        string_val: "C"
        string_val: "C"
        string_val: "S"
        string_val: "S"
        string_val: "C"
        string_val: "C"
        string_val: "S"
        string_val: "S"
        string_val: "S"
        string_val: "S"
        string_val: "S"
        string_val: "S"
        string_val: "S"
        string_val: "C"
        string_val: "S"
        string_val: "S"
        string_val: "S"
        string_val: "S"
        string_val: "S"
        string_val: "S"
        string_val: "S"
        string_val: "S"
        string_val: "Q"
        string_val: "S"
        string_val: "S"
        string_val: "S"
        string_val: "S"
        string_val: "S"
        string_val: "S"
        string_val: "S"
        string_val: "S"
        string_val: "S"
        string_val: "S"
        string_val: "S"
        string_val: "S"
        string_val: "S"
        string_val: "C"
        string_val: "C"
        string_val: "S"
        string_val: "S"
        string_val: "S"
        string_val: "S"
        string_val: "S"
        string_val: "S"
        string_val: "S"
        string_val: "S"
        string_val: "S"
        string_val: "S"
        string_val: "S"
        string_val: "Q"
        string_val: "S"
        string_val: "C"
        string_val: "S"
        string_val: "S"
        string_val: "C"
        string_val: "S"
        string_val: "Q"
        string_val: "S"
        string_val: "C"
        string_val: "S"
        string_val: "S"
        string_val: "S"
        string_val: "C"
        string_val: "S"
        string_val: "S"
        string_val: "C"
        string_val: "Q"
        string_val: "S"
        string_val: "C"
        string_val: "S"
        string_val: "C"
        string_val: "S"
        string_val: "S"
        string_val: "S"
        string_val: "S"
        string_val: "C"
        string_val: "S"
        string_val: "S"
        string_val: "S"
        string_val: "C"
        string_val: "C"
        string_val: "S"
        string_val: "S"
        string_val: "Q"
        string_val: "S"
        string_val: "S"
        string_val: "S"
        string_val: "S"
        string_val: "S"
        string_val: "S"
        string_val: "S"
        string_val: "S"
        string_val: "S"
        string_val: "S"
        string_val: "S"
        string_val: "C"
        string_val: "Q"
        string_val: "S"
        string_val: "S"
        string_val: "S"
        string_val: "S"
        string_val: "S"
        string_val: "S"
        string_val: "S"
        string_val: "S"
        string_val: "S"
        string_val: "S"
        string_val: "S"
        string_val: "S"
        string_val: "S"
        string_val: "S"
        string_val: "Q"
        string_val: "S"
        string_val: "S"
        string_val: "C"
        string_val: "S"
        string_val: "S"
        string_val: "C"
        string_val: "S"
        string_val: "S"
        string_val: "S"
        string_val: "C"
        string_val: "S"
        string_val: "S"
        string_val: "S"
        string_val: "S"
        string_val: "Q"
        string_val: "S"
        string_val: "Q"
        string_val: "S"
        string_val: "S"
        string_val: "S"
        string_val: "S"
        string_val: "S"
        string_val: "C"
        string_val: "C"
        string_val: "Q"
        string_val: "S"
        string_val: "Q"
        string_val: "S"
        string_val: "S"
        string_val: "S"
        string_val: "S"
        string_val: "C"
        string_val: "S"
        string_val: "S"
        string_val: "S"
        string_val: "C"
        string_val: "Q"
        string_val: "C"
        string_val: "S"
        string_val: "S"
        string_val: "S"
        string_val: "S"
        string_val: "Q"
        string_val: "C"
        string_val: "S"
        string_val: "S"
        string_val: "C"
        string_val: "S"
        string_val: "S"
        string_val: "S"
        string_val: "S"
        string_val: "S"
        string_val: "S"
        string_val: "S"
        string_val: "S"
        string_val: "S"
        string_val: "S"
        string_val: "S"
        string_val: "S"
        string_val: "S"
        string_val: "S"
        string_val: "S"
        string_val: "S"
        string_val: "S"
        string_val: "S"
        string_val: "S"
        string_val: "S"
        string_val: "S"
        string_val: "C"
        string_val: "Q"
        string_val: "S"
        string_val: "S"
        string_val: "C"
        string_val: "Q"
        string_val: "S"
        string_val: "S"
        string_val: "S"
        string_val: "S"
        string_val: "S"
        string_val: "S"
        string_val: "S"
        string_val: "S"
        string_val: "S"
        string_val: "C"
        string_val: "C"
        string_val: "S"
        string_val: "C"
        string_val: "S"
        string_val: "Q"
        string_val: "S"
        string_val: "S"
        string_val: "S"
        string_val: "Q"
        string_val: "S"
        string_val: "S"
        string_val: "S"
        string_val: "S"
        string_val: "S"
        string_val: "S"
        string_val: "S"
        string_val: "S"
        string_val: "C"
        string_val: "Q"
        string_val: "S"
        string_val: "S"
        string_val: "S"
        string_val: "Q"
        string_val: "S"
        string_val: "Q"
        string_val: "S"
        string_val: "S"
        string_val: "S"
        string_val: "S"
        string_val: "C"
        string_val: "S"
        string_val: "S"
        string_val: "S"
        string_val: "Q"
        string_val: "S"
        string_val: "C"
        string_val: "C"
        string_val: "S"
        string_val: "S"
        string_val: "C"
        string_val: "C"
        string_val: "S"
        string_val: "S"
        string_val: "C"
        string_val: "Q"
        string_val: "Q"
        string_val: "S"
        string_val: "Q"
        string_val: "S"
        string_val: "S"
        string_val: "C"
        string_val: "C"
        string_val: "C"
        string_val: "C"
        string_val: "C"
        string_val: "C"
        string_val: "S"
        string_val: "S"
        string_val: "S"
        string_val: "S"
        string_val: "S"
        string_val: "S"
        string_val: "S"
        string_val: "C"
        string_val: "S"
        string_val: "S"
        string_val: "Q"
        string_val: "S"
        string_val: "S"
        string_val: "C"
        string_val: "S"
        string_val: "S"
        string_val: "S"
        string_val: "C"
        string_val: "Q"
        string_val: "S"
        string_val: "S"
        string_val: "S"
        string_val: "S"
        string_val: "S"
        string_val: "S"
        string_val: "C"
        string_val: "S"
        string_val: "S"
        string_val: "S"
        string_val: "S"
        string_val: "S"
        string_val: "S"
        string_val: "S"
        string_val: "S"
        string_val: "S"
        string_val: "S"
        string_val: "S"
        string_val: "S"
        string_val: "S"
        string_val: "S"
        string_val: "C"
        string_val: "S"
        string_val: "C"
        string_val: "S"
        string_val: "S"
        string_val: "S"
        string_val: "Q"
        string_val: "Q"
        string_val: "S"
        string_val: "C"
        string_val: "C"
        string_val: "S"
        string_val: "Q"
        string_val: "S"
        string_val: "C"
        string_val: "C"
        string_val: "Q"
        string_val: "C"
        string_val: "C"
        string_val: "S"
        string_val: "S"
        string_val: "C"
        string_val: "S"
        string_val: "C"
        string_val: "S"
        string_val: "C"
        string_val: "C"
        string_val: "S"
        string_val: "C"
        string_val: "C"
        string_val: "S"
        string_val: "S"
        string_val: "S"
        string_val: "S"
        string_val: "S"
        string_val: "S"
        string_val: "Q"
        string_val: "C"
        string_val: "S"
        string_val: "S"
        string_val: "S"
        string_val: "C"
        string_val: "S"
        string_val: "S"
        string_val: "S"
        string_val: "S"
        string_val: "S"
        string_val: "S"
        string_val: "S"
        string_val: "S"
        string_val: "S"
        string_val: "S"
        string_val: "S"
        string_val: "S"
        string_val: "S"
        string_val: "S"
        string_val: "S"
        string_val: "S"
        string_val: "S"
        string_val: "Q"
        string_val: "Q"
        string_val: "S"
        string_val: "S"
        string_val: "S"
        string_val: "S"
        string_val: "S"
        string_val: "S"
        string_val: "S"
        string_val: "C"
        string_val: "Q"
        string_val: "S"
        string_val: "S"
        string_val: "S"
        string_val: "S"
        string_val: "S"
        string_val: "S"
        string_val: "Q"
        string_val: "S"
        string_val: "S"
        string_val: "S"
        string_val: "S"
        string_val: "S"
        string_val: "S"
        string_val: "S"
        string_val: "S"
        string_val: "S"
        string_val: "S"
        string_val: "S"
        string_val: "S"
        string_val: "S"
        string_val: "S"
        string_val: "S"
        string_val: "S"
        string_val: "S"
        string_val: "S"
        string_val: "S"
        string_val: "C"
        string_val: "S"
        string_val: "S"
        string_val: "S"
        string_val: "C"
        string_val: "C"
        string_val: "S"
        string_val: "C"
        string_val: "S"
        string_val: "S"
        string_val: "S"
        string_val: "Q"
        string_val: "S"
        string_val: "S"
        string_val: "S"
        string_val: "S"
        string_val: "S"
        string_val: "S"
        string_val: "S"
        string_val: "S"
        string_val: "Q"
        string_val: "C"
        string_val: "S"
        string_val: "S"
        string_val: "S"
        string_val: "C"
        string_val: "S"
        string_val: "S"
        string_val: "S"
        string_val: "S"
        string_val: "S"
        string_val: "S"
        string_val: "S"
        string_val: "S"
        string_val: "S"
        string_val: "S"
        string_val: "C"
        string_val: "S"
        string_val: "S"
        string_val: "C"
        string_val: "S"
        string_val: "S"
        string_val: "S"
        string_val: "S"
        string_val: "S"
        string_val: "C"
        string_val: "S"
        string_val: "C"
        string_val: "C"
        string_val: "S"
        string_val: "S"
        string_val: "S"
        string_val: "S"
        string_val: "Q"
        string_val: "Q"
        string_val: "S"
        string_val: "S"
        string_val: "C"
        string_val: "S"
        string_val: "S"
        string_val: "S"
        string_val: "S"
        string_val: "Q"
        string_val: "S"
        string_val: "S"
        string_val: "C"
        string_val: "S"
        string_val: "S"
        string_val: "S"
        string_val: "Q"
        string_val: "S"
        string_val: "S"
        string_val: "S"
        string_val: "S"
        string_val: "C"
        string_val: "C"
        string_val: "C"
        string_val: "Q"
        string_val: "S"
        string_val: "S"
        string_val: "S"
        string_val: "S"
        string_val: "S"
        string_val: "C"
        string_val: "C"
        string_val: "C"
        string_val: "S"
        string_val: "S"
        string_val: "S"
        string_val: "C"
        string_val: "S"
        string_val: "C"
        string_val: "S"
        string_val: "S"
        string_val: "S"
        string_val: "S"
        string_val: "C"
        string_val: "S"
        string_val: "S"
        string_val: "C"
        string_val: "S"
        string_val: "S"
        string_val: "C"
        string_val: "S"
        string_val: "Q"
        string_val: "C"
        string_val: "S"
        string_val: "S"
        string_val: "C"
        string_val: "C"
        string_val: "S"
        string_val: "S"
        string_val: "Q"
        string_val: "S"
        string_val: "S"
        string_val: "S"
        string_val: "S"
        string_val: "S"
        string_val: "S"
        string_val: "S"
        string_val: "C"
        string_val: "S"
        string_val: "S"
        string_val: "S"
        string_val: "S"
        string_val: "Q"
        string_val: "S"
        string_val: "S"
        string_val: "S"
        string_val: "S"
        string_val: "C"
        string_val: "S"
        string_val: "S"
        string_val: "C"
        string_val: "S"
        string_val: "C"
        string_val: "C"
        string_val: "S"
        string_val: "S"
        string_val: "C"
        string_val: "S"
        string_val: "S"
        string_val: "S"
        string_val: "C"
        string_val: "S"
        string_val: "Q"
        string_val: "S"
        string_val: "S"
        string_val: "S"
        string_val: "S"
        string_val: "C"
        string_val: "C"
        string_val: "S"
        string_val: "S"
        string_val: "S"
        string_val: "S"
        string_val: "C"
        string_val: "S"
        string_val: "S"
        string_val: "S"
        string_val: "C"
        string_val: "S"
        string_val: "S"
        string_val: "S"
        string_val: "Q"
        string_val: "Q"
        string_val: "S"
        string_val: "S"
        string_val: "S"
        string_val: "S"
        string_val: "S"
        string_val: "S"
        string_val: "C"
        string_val: "S"
        string_val: "C"
        string_val: "S"
        string_val: "S"
        string_val: "S"
        string_val: "Q"
        string_val: "S"
        string_val: "S"
        string_val: "Q"
        string_val: "S"
        string_val: "S"
        string_val: "C"
        string_val: "S"
        string_val: "S"
        string_val: "S"
        string_val: "S"
        string_val: "S"
        string_val: "S"
        string_val: "S"
        string_val: "S"
        string_val: "C"
        string_val: "S"
        string_val: "S"
        string_val: "C"
        string_val: "C"
        string_val: "S"
        string_val: "C"
        string_val: "S"
        string_val: "S"
        string_val: "S"
        string_val: "S"
        string_val: "S"
        string_val: "Q"
        string_val: "Q"
        string_val: "S"
      }
    }
  }
}
node {
  name: "normalize_element/component_3"
  op: "Const"
  device: "/device:CPU:0"
  attr {
    key: "_output_shapes"
    value {
      list {
        shape {
          dim {
            size: 655
          }
        }
      }
    }
  }
  attr {
    key: "dtype"
    value {
      type: DT_DOUBLE
    }
  }
  attr {
    key: "value"
    value {
      tensor {
        dtype: DT_DOUBLE
        tensor_shape {
          dim {
            size: 655
          }
        }
        tensor_content: "<\275R\226!\322Q@33333\263\037@\315\314\314\314\314\214J@\232\231\231\231\231\031 @{\203/L\246\352 @fffff\356I@33333\0235@\025\035\311\345?D&@\212\216\344\362\037\022>@33333\2630@\315\314\314\314\314\214:@\232\231\231\231\231\031 @fffffF?@\t\371\240g\263j\037@\000\000\000\000\000\0000@\000\000\000\000\000 =@\000\000\000\000\000\000*@\000\000\000\000\000\0002@fffff\346\034@\000\000\000\000\000\000:@\000\000\000\000\000\000*@\036\026jM\363\016 @\000\000\000\000\000\300A@33333\0235@33333c?@fffff\346\034@\000\000\000\000\000pp@\243\222:\001M\204\037@\367\006_\230L\225\037@\361\364JY\206\270;@8\370\302d\252Pb@\000\000\000\000\000\000\037@\000\000\000\000\000\000%@\t\212\037c\356\212T@\000\000\000\000\000\000J@\t\371\240g\263\352\034@\232\231\231\231\231\031 @\000\000\000\000\000\0002@\353\3426\032\300{&@33333\363\"@\000\000\000\000\000\0005@\367\006_\230L\225\037@\356\353\3009#\312D@\243\222:\001M\204\037@\232\231\231\231\231\031 @\000\000\000\000\000\000/@\000\000\000\000\000\000\037@vq\033\r\340\2555@\315\314\314\314\314\3141@\000\000\000\000\000\330C@333333\037@\221\017z6\253.S@\000\000\000\000\000\000:@!\037\364lV\375N@\000\000\000\000\000\300A@\000\000\000\000\000\000%@\t\371\240g\263\352\034@\000\000\000\000\000\300;@33333sG@\t\371\240g\263\352\034@\000\000\000\000\000\000T@fffff\336T@fffff\346;@\361\364JY\206\270;@\256\266b\177\331}.@\000\000\000\000\000\000%@\342\351\225\262\014Q @33333\263\037@33333S!@\000\000\000\000\000\000%@33333sG@\000\000\000\000\000`R@\270\257\003\347\214\350,@\254\255\330_v?L@\232\231\231\231\231\231\036@\367\006_\230L\225\037@\232\231\231\231\231\031 @\000\000\000\000\000\000=@33333\363(@\000\000\000\000\000\000\"@\000\000\000\000\000\000#@fffff&\037@\315\314\314\314\314\214G@\000\000\000\000\000\000%@33333\263/@\000\000\000\000\0000A@\232\231\231\231\231\031 @\000\000\000\000\000pp@\232\231\231\231\231\031 @\232\231\231\231\231\031 @\t\371\240g\263j\037@fffff\226N@33333\2234@\000\000\000\000\000\000\035@\232\231\231\231\231\031 @\210\205Z\323\274SA@\022\024?\306\334\255O@\000\000\000\000\000\0007@\000\000\000\000\000\000:@\367\006_\230L\225\037@\367\006_\230L\225\037@fffffRS@\036\026jM\363N!@33333\263\037@\367\006_\230L\225\037@\232\231\231\231\231\231\036@\232\231\231\231\231\031\037@\367\006_\230L\225\037@fffff&8@\000\000\000\000\000\000J@\270\257\003\347\214\350,@\232\231\231\231\231\031 @fffff\246#@{\203/L\246\352,@33333\263\037@\000\000\000\000\000\000\037@\000\000\000\000\000\0005@8\370\302d\252\360n@fffffF?@\000\000\000\000\000`R@\232\231\231\231\231\031 @\212\216\344\362\037\022>@\000\000\000\000\000\000*@fffffRS@\353\3426\032\300{&@\000\000\000\000\000\000\037@p_\007\316\031\221\034@$(~\214\271[6@fffff\346\033@\367\006_\230L\225\037@333333\034@\000\000\000\000\000\000-@\000\000\000\000\000\000:@\000\000\000\000\000\000*@HP\374\030s\027.@\361\364JY\206H:@\315\314\314\314\314\214J@\036\026jM\363n\"@\315\314\314\314\314\314S@\256\266b\177\331}.@\000\000\000\000\000\000\037@33333\263/@\000\000\000\000\000\000\033@\000\000\000\000\000\000\'@\000\000\000\000\000`B@\220\240\3701\346.\037@\000\000\000\000\0000A@\000\000\000\000\000\000:@\000\000\000\000\000\000*@\315\314\314\314\314\014)@fffff\246P@\232\231\231\231\231\031 @\000\000\000\000\000\000-@\000\000\000\000\000@\035@TR\'\240\211\260N@\220\240\3701\346\356\036@\232\231\231\231\231\031 @33333S!@33333cQ@\232\231\231\231\231\0310@\000\000\000\000\000\200/@\232\231\231\231\231\031\037@33333S!@\000\000\000\000\000\330C@fffff\2064@\000\000\000\000\000\200K@fffff\346;@\315\314\314\314\314\3549@\254\255\330_v?L@\000\000\000\000\000\300@@\000\000\000\000\000 =@\025\035\311\345?D&@33333\263\037@\212\216\344\362\037\262>@\t\371\240g\263j\037@\017\013\265\246yw9@fffff\266<@\000\000\000\000\000\000*@\000\000\000\000\000\000\000\00033333cQ@\232\231\231\231\231\031.@33333c?@\000\000\000\000\000\200C@fffff\0066@\000\000\000\000\000\000I@\000\000\000\000\000\000/@\315\314\314\314\314\214:@\000\000\000\000\000\000/@\367\006_\230L\225\037@\000\000\000\000\000\000*@\000\000\000\000\000\000*@\t\371\240g\263j\037@\000\000\000\000\000\000:@\361\364JY\206\270;@8\370\302d\252Pb@\000\000\000\000\000\000\037@\036\026jM\363\316 @\000\000\000\000\000\000\037@\000\000\000\000\000\000*@\000\000\000\000\000\000#@33333cQ@]m\305\376\262\373\031@fffff\346\034@\232\231\231\231\231\031 @\315\314\314\314\314\354$@33333\263/@\232\231\231\231\231\3112@\000\000\000\000\000\000\037@\000\000\000\000\000\000?@333333\034@\000\000\000\000\000\0005@\000\000\000\000\000\000\035@\000\000\000\000\000\000*@\000\000\000\000\000\000\037@\232\231\231\231\231Q\\@33333\263\037@\000\000\000\000\000\000;@\221\017z6\253\022S@\000\000\000\000\000\000%@\232\231\231\231\231\031 @\000\000\000\000\000\000*@\232\231\231\231\231\031 @\367\006_\230L\225\037@\000\000\000\000\000\200V@33333\263\"@\000\000\000\000\000\000%@\000\000\000\000\000\000\035@\000\000\000\000\000\000*@\017\013\265\246yw9@fffff\336T@\232\231\231\231\231\031\037@\000\000\000\000\000\000+@33333c?@\000\000\000\000\000\000%@333333\036@\000\000\000\000\000\000:@\000\000\000\000\000@:@\000\000\000\000\000\000%@\315\314\314\314\314\214(@\270\257\003\347\214\350,@\000\000\000\000\000\000/@\000\000\000\000\000\000%@\000\000\000\000\000\200\034@fffff\346\034@\000\000\000\000\000\200V@\232\231\231\231\231\031\037@\000\000\000\000\000\000-@\273\270\215\006\360FJ@\000\000\000\000\000\000:@\000\000\000\000\000\000\035@\315\314\314\314\314\354$@\315\314\314\314\314\214:@\232\231\231\231\231\0310@fffff64@\256\266b\177\331}.@\315\314\314\314\314\314S@\000\000\000\000\000\240U@\277\016\2343\242\002\200@\000\000\000\000\000\000:@\000\000\000\000\000\000\037@33333c?@\232\231\231\231\231\351S@\000\000\000\000\000\000\000\000\000\000\000\000\000\000\037@\000\000\000\000\000\000%@\000\000\000\000\000\330C@\232\231\231\231\231\031\037@\315\314\314\314\314.c@\321\221\\\376C\364`@\000\000\000\000\000\000?@\000\000\000\000\000\000\000\000\000\000\000\000\000\2003@33333\263=@\000\000\000\000\000\000\037@o\360\205\311T}S@\000\000\000\000\000\000\037@\000\000\000\000\000\000\000\000\000\000\000\000\000 =@\000\000\000\000\000@4@\000\000\000\000\000\000\037@\t\371\240g\263j\037@\000\000\000\000\000\000#@\232\231\231\231\231\031 @\000\000\000\000\000\000:@33333S!@\000\000\000\000\000\000#@\367\006_\230L\225\037@\000\000\000\000\000\000*@\000\000\000\000\000\000\037@fffff\266S@\367u\340\234\021\305V@\000\000\000\000\000\300)@33333\263!@\367\006_\230L\225\037@\361\364JY\206\270;@\t\371\240g\263\352\034@\232\231\231\231\231\361b@\000\000\000\000\000\200>@8\370\302d\252\360n@\000\000\000\000\000\000\037@\000\000\000\000\000@7@\000\000\000\000\000\000\000\00033333\263(@\232\231\231\231\231\031 @\232\231\231\231\231\361b@\243#\271\374\207\270[@\232\231\231\231\2319[@\000\000\000\000\000\0008@\273\270\215\006\360vL@<\275R\226!\312T@\000\000\000\000\000fp@\000\000\000\000\000\000:@\367\006_\230L\225\037@\000\000\000\000\000@:@\t\371\240g\263j\037@\000\000\000\000\000\000:@\000\000\000\000\000\000,@/n\243\001\274\233d@\000\000\000\000\000\320`@\000\000\000\000\000\000\035@\367\006_\230L\225\037@33333\263(@\000\000\000\000\000\000=@33333cQ@\321\221\\\376C\364`@33333\363\030@\000\000\000\000\000\000*@fffff\2064@!\037\364lV\375L@\000\000\000\000\000@7@\000\000\000\000\000\200<@\315\314\314\314\314.c@\000\000\000\000\000\0002@\315\314\314\314\314\264`@\367\006_\230L\225\037@fffff\246P@\000\000\000\000\000\320`@\232\231\231\231\231\031 @\000\000\000\000\000\300A@\000\000\000\000\000\000:@\000\000\000\000\000pp@\000\000\000\000\000\000*@\000\000\000\000\000\000*@\000\000\000\000\000\000*@\000\000\000\000\000\000*@\000\000\000\000\000\000*@\232\231\231\231\231\0310@\315\314\314\314\314\314/@33333S!@33333s\"@\000\000\000\000\000\200A@\t\371\240g\263\352\034@\315\314\314\314\314\3141@fffff\346\034@\000\000\000\000\000\000#@\000\000\000\000\000\200K@\000\000\000\000\000\000*@\243\222:\001M\204\037@\243\222:\001M\204\037@fffff\346;@\361\364JY\206\270;@\270\257\003\347\214\350,@333333\034@\000\000\000\000\000\000/@\000\000\000\000\000\000\035@\000\000\000\000\000\320R@\t\371\240g\263\352\034@\000\000\000\000\000\000\037@33333SQ@TR\'\240\211\270K@]m\305\376\262\373\031@\232\231\231\231\231\031 @\321\221\\\376C\364`@33333\0235@\t\212\037c\356\212T@\000\000\000\000\000\000\035@\000\000\000\000\000pj@\315\314\314\314\314\014\020@\232\231\231\231\231\031\037@\315\314\314\314\314pl@\353\3426\032\300{/@33333\263\037@\000\000\000\000\000\000J@\367\006_\230L\225\037@\000\000\000\000\000`R@33333sG@\000\000\000\000\000\000*@\t\371\240g\263\352\036@\000\000\000\000\000\000(@\000\000\000\000\000\000^@\220\240\3701\346.\037@33333\263\037@\232\231\231\231\231Q\\@33333\2630@\220\240\3701\346.\037@\t\371\240g\263j\037@\000\000\000\000\000\000:@\000\000\000\000\000\000%@\315\314\314\314\314L)@33333\263\037@\232\231\231\231\231\031 @fffff\246#@33333\263/@33333S!@\000\000\000\000\000\0005@\000\000\000\000\000\000\037@\000\000\000\000\000\3002@\232\231\231\231\231\031\037@\017\013\265\246yw9@\367\006_\230L\225\037@\220\240\3701\346n\033@\000\000\000\000\000\200V@\000\000\000\000\000\000\000\00033333\263\037@\232\231\231\231\231\031 @\000\000\000\000\000@@@\000\000\000\000\000\000*@\000\000\000\000\000\000*@fffff&8@\367\006_\230L\225\037@\220\240\3701\346\356\036@\000\000\000\000\000\200\037@\315\314\314\314\314\314,@fffff64@\000\000\000\000\000\000\035@\000\000\000\000\000\000:@\000\000\000\000\000\000:@\000\000\000\000\000\000\037@\232\231\231\231\231\031 @\315\314\314\314\314\214:@\232\231\231\231\231\0310@\000\000\000\000\000\000:@\000\000\000\000\000\200\034@33333\363K@\000\000\000\000\000\000^@\000\000\000\000\0000A@\000\000\000\000\000\3002@\000\000\000\000\000pp@\000\000\000\000\000\000%@\000\000\000\000\000@:@\000\000\000\000\000\000#@\232\231\231\231\231\031\037@\000\000\000\000\000\000*@\232\231\231\231\2319 @\t\212\037c\356vT@\000\000\000\000\000\2003@\315\314\314\314\314\214:@\212\216\344\362\037B3@\000\000\000\000\000\200>@\000\000\000\000\000\300;@\017\013\265\246y\3673@\000\000\000\000\000\300;@\221\017z6\253FV@\232\231\231\231\231\031 @\367\006_\230L\225\037@\315\314\314\314\314\214:@fffff\356I@\000\000\000\000\000\000%@\000\000\000\000\000\000\037@\315\314\314\314\314\214:@\232\231\231\231\231\031 @\000\000\000\000\000@C@\000\000\000\000\000\000*@\232\231\231\231\231\031 @333333\034@\000\000\000\000\000\000\000\000\315\314\314\314\314\214:@fffff\346\036@\212\216\344\362\037B3@\000\000\000\000\000\000\035@33333S!@\000\000\000\000\000\300;@\205|\320\263Y\225+@\315\314\314\314\314\254#@\000\000\000\000\000\000J@\000\000\000\000\000\0005@\220\240\3701\346.\034@\367\006_\230L\025\036@33333\223(@33333sG@\000\000\000\000\000\000\000\000\232\231\231\231\231\031 @\315\314\314\314\314,#@\367u\340\234\021\305V@\017\013\265\246yw9@\000\000\000\000\000\200V@33333\263=@\232\231\231\231\231\031 @\315\314\314\314\314\314/@\017\013\265\246y\3673@\000\000\000\000\000\000\035@\000\000\000\000\000\200>@TR\'\240\211\300H@\232\231\231\231\231\031 @{\203/L\246\352,@\367u\340\234\021\221S@333333.@\232\231\231\231\231\361b@\220\240\3701\346.\037@33333S!@\000\000\000\000\000\000\037@\243\222:\001M\204\036@\315\314\314\314\314,#@\000\000\000\000\000\240U@\232\231\231\231\2319[@\000\000\000\000\000\000:@\315\314\314\314\314\214:@fffff\2066@\254\255\330_v?L@\000\000\000\000\000\000\037@\232\231\231\231\231\031 @\232\231\231\231\231I:@33333\263M@]m\305\376\262\373\035@\337\340\013\223\251\002A@\000\000\000\000\000\000%@fffff&8@\000\000\000\000\000\000:@\367\006_\230L\225\037@\000\000\000\000\000`W@\367\006_\230L\225\037@fffff\346\034@!\037\364lV\375L@\t\371\240g\263\352\034@\000\000\000\000\000\000\037@\000\000\000\000\000\000%@b\241\3264\357\270k@33333\263\037@\000\000\000\000\000\000\'@\000\000\000\000\000\000:@\t\371\240g\263\352\034@\t\371\240g\263\352\034@$(~\214\271[6@33333S!@\000\000\000\000\000@:@\315\314\314\314\314\214:@33333\233Z@\000\000\000\000\000\000-@\000\000\000\000\000\300H@\000\000\000\000\000\300Q@fffffF?@fffffF?@\000\000\000\000\000\000:@33333\233Z@\000\000\000\000\000\000:@\000\000\000\000\000\000:@\232\231\231\231\231\271+@fffff\2064@\000\000\000\000\000`B@\243#\271\374\207\270[@\000\000\000\000\000\000:@p_\007\316\031Q\037@fffff\346\034@\232\231\231\231\231\031\037@\315\314\314\314\314\214:@\315\314\314\314\314\314C@\315\314\314\314\314pl@\232\231\231\231\231\351S@ffffff1@\000\000\000\000\000\000\037@\367\006_\230L\225\037@\000\000\000\000\000\000+@\232\231\231\231\231\031 @\232\231\231\231\231\031 @fffff&8@\367\006_\230L\225\037@33333\0235@\t\371\240g\263\352\034@\t\371\240g\263j\037@\000\000\000\000\000\000%@!\037\364lV\275I@33333c:@\000\000\000\000\000\000\037@\232\231\231\231\231\031 @\000\000\000\000\000\000-@\000\000\000\000\000\000*@33333\363K@{\203/L\246\352,@33333\263\037@\000\000\000\000\000\000>@\243#\271\374\207\270[@\000\000\000\000\000\000:@\000\000\000\000\000\020D@\315\314\314\314\314l!@\232\231\231\231\231\351S@\000\000\000\000\000\000.@\315\314\314\314\314\314S@\232\231\231\231\231\031 @\232\231\231\231\231\031 @\000\000\000\000\000\200\034@\367u\340\234\021\221S@\000\000\000\000\000\000\035@\000\000\000\000\000\000\037@\000\000\000\000\000\000:@fffff&8@\000\000\000\000\000\200@@\000\000\000\000\000\000\000\000fffff\346\034@\273\270\215\006\360vL@\000\000\000\000\000\000;@\367\006_\230L\225\037@333333E@\232\231\231\231\231\031 @\315\314\314\314\314\214:@\232\231\231\231\231\031/@\367\006_\230L\225\037@\000\000\000\000\000\200>@\356\353\3009#\312D@\315\314\314\314\314.c@fffffF?@333333\034@\000\000\000\000\000\000/@\000\000\000\000\000\000\037@\232\231\231\231\231\031 @\000\000\000\000\000@P@\315\314\314\314\314\314,@\232\231\231\231\231\0310@\000\000\000\000\000\200C@\000\000\000\000\000\000%@\270\257\003\347\214\350,@\273\270\215\006\360FJ@\353\3426\032\300{/@\t\371\240g\263j\037@\232\231\231\231\231\0310@EGr\371\017)@@33333\263(@o\360\205\311T}S@\367\006_\230L\225\037@\220\240\3701\346\356\036@\000\000\000\000\000\000>@\326\305m4\2007\034@\000\000\000\000\000\200>@\000\000\000\000\000\000\000\000fffff\346;@\000\000\000\000\000\000*@33333\263\037@\000\000\000\000\000@:@\000\000\000\000\000\330C@\232\231\231\231\231\0310@\t\371\240g\263j\037@33333SQ@fffff\346;@\254\255\330_v?L@\212\216\344\362\037B3@\221\017z6\253.S@\367\006_\230L\225\037@\000\000\000\000\000\300A@333333\036@333333\036@\367\006_\230L\225\037@\000\000\000\000\000\0007@\256\266b\177\331\335 @p_\007\316\031Q\037@\000\000\000\000\000\000\033@\000\000\000\000\000`R@"
      }
    }
  }
}
node {
  name: "normalize_element/component_4"
  op: "Const"
  device: "/device:CPU:0"
  attr {
    key: "_output_shapes"
    value {
      list {
        shape {
          dim {
            size: 655
          }
        }
      }
    }
  }
  attr {
    key: "dtype"
    value {
      type: DT_STRING
    }
  }
  attr {
    key: "value"
    value {
      tensor {
        dtype: DT_STRING
        tensor_shape {
          dim {
            size: 655
          }
        }
        string_val: "Cumings, Mrs. John Bradley (Florence Briggs Thayer)"
        string_val: "Heikkinen, Miss. Laina"
        string_val: "Futrelle, Mrs. Jacques Heath (Lily May Peel)"
        string_val: "Allen, Mr. William Henry"
        string_val: "Moran, Mr. James"
        string_val: "McCarthy, Mr. Timothy J"
        string_val: "Palsson, Master. Gosta Leonard"
        string_val: "Johnson, Mrs. Oscar W (Elisabeth Vilhelmina Berg)"
        string_val: "Nasser, Mrs. Nicholas (Adele Achem)"
        string_val: "Sandstrom, Miss. Marguerite Rut"
        string_val: "Bonnell, Miss. Elizabeth"
        string_val: "Saundercock, Mr. William Henry"
        string_val: "Andersson, Mr. Anders Johan"
        string_val: "Vestrom, Miss. Hulda Amanda Adolfina"
        string_val: "Hewlett, Mrs. (Mary D Kingcome) "
        string_val: "Rice, Master. Eugene"
        string_val: "Williams, Mr. Charles Eugene"
        string_val: "Vander Planke, Mrs. Julius (Emelia Maria Vandemoortele)"
        string_val: "Masselmani, Mrs. Fatima"
        string_val: "Fynney, Mr. Joseph J"
        string_val: "Beesley, Mr. Lawrence"
        string_val: "McGowan, Miss. Anna \"Annie\""
        string_val: "Sloper, Mr. William Thompson"
        string_val: "Palsson, Miss. Torborg Danira"
        string_val: "Asplund, Mrs. Carl Oscar (Selma Augusta Emilia Johansson)"
        string_val: "Emir, Mr. Farred Chehab"
        string_val: "Fortune, Mr. Charles Alexander"
        string_val: "O\'Dwyer, Miss. Ellen \"Nellie\""
        string_val: "Todoroff, Mr. Lalio"
        string_val: "Uruchurtu, Don. Manuel E"
        string_val: "Spencer, Mrs. William Augustus (Marie Eugenie)"
        string_val: "Glynn, Miss. Mary Agatha"
        string_val: "Wheadon, Mr. Edward H"
        string_val: "Meyer, Mr. Edgar Joseph"
        string_val: "Holverson, Mr. Alexander Oskar"
        string_val: "Mamee, Mr. Hanna"
        string_val: "Cann, Mr. Ernest Charles"
        string_val: "Vander Planke, Miss. Augusta Maria"
        string_val: "Nicola-Yarred, Miss. Jamila"
        string_val: "Ahlin, Mrs. Johan (Johanna Persdotter Larsson)"
        string_val: "Turpin, Mrs. William John Robert (Dorothy Ann Wonnacott)"
        string_val: "Kraeff, Mr. Theodor"
        string_val: "Laroche, Miss. Simonne Marie Anne Andree"
        string_val: "Devaney, Miss. Margaret Delia"
        string_val: "Rogers, Mr. William John"
        string_val: "Lennon, Mr. Denis"
        string_val: "O\'Driscoll, Miss. Bridget"
        string_val: "Samaan, Mr. Youssef"
        string_val: "Arnold-Franchi, Mrs. Josef (Josefine Franchi)"
        string_val: "Panula, Master. Juha Niilo"
        string_val: "Nosworthy, Mr. Richard Cater"
        string_val: "Harper, Mrs. Henry Sleeper (Myna Haxtun)"
        string_val: "Faunthorpe, Mrs. Lizzie (Elizabeth Anne Wilkinson)"
        string_val: "Ostby, Mr. Engelhart Cornelius"
        string_val: "Woolner, Mr. Hugh"
        string_val: "Rugg, Miss. Emily"
        string_val: "Novel, Mr. Mansouer"
        string_val: "West, Miss. Constance Mirium"
        string_val: "Goodwin, Master. William Frederick"
        string_val: "Sirayanian, Mr. Orsen"
        string_val: "Icard, Miss. Amelie"
        string_val: "Harris, Mr. Henry Birkhardt"
        string_val: "Skoog, Master. Harald"
        string_val: "Stewart, Mr. Albert A"
        string_val: "Moubarek, Master. Gerios"
        string_val: "Nye, Mrs. (Elizabeth Ramell)"
        string_val: "Crease, Mr. Ernest James"
        string_val: "Andersson, Miss. Erna Alexandra"
        string_val: "Kink, Mr. Vincenz"
        string_val: "Jenkin, Mr. Stephen Curnow"
        string_val: "Goodwin, Miss. Lillian Amy"
        string_val: "Hood, Mr. Ambrose Jr"
        string_val: "Chronopoulos, Mr. Apostolos"
        string_val: "Bing, Mr. Lee"
        string_val: "Moen, Mr. Sigurd Hansen"
        string_val: "Staneff, Mr. Ivan"
        string_val: "Moutal, Mr. Rahamin Haim"
        string_val: "Caldwell, Master. Alden Gates"
        string_val: "Dowdell, Miss. Elizabeth"
        string_val: "Waelens, Mr. Achille"
        string_val: "Sheerlinck, Mr. Jan Baptist"
        string_val: "McDermott, Miss. Brigdet Delia"
        string_val: "Carrau, Mr. Francisco M"
        string_val: "Ilett, Miss. Bertha"
        string_val: "Backstrom, Mrs. Karl Alfred (Maria Mathilda Gustafsson)"
        string_val: "Ford, Mr. William Neal"
        string_val: "Slocovski, Mr. Selman Francis"
        string_val: "Fortune, Miss. Mabel Helen"
        string_val: "Celotti, Mr. Francesco"
        string_val: "Christmann, Mr. Emil"
        string_val: "Andreasson, Mr. Paul Edvin"
        string_val: "Chaffee, Mr. Herbert Fuller"
        string_val: "Dean, Mr. Bertram Frank"
        string_val: "Coxon, Mr. Daniel"
        string_val: "Shorney, Mr. Charles Joseph"
        string_val: "Goldschmidt, Mr. George B"
        string_val: "Greenfield, Mr. William Bertram"
        string_val: "Doling, Mrs. John T (Ada Julia Bone)"
        string_val: "Kantor, Mr. Sinai"
        string_val: "Petranec, Miss. Matilda"
        string_val: "Petroff, Mr. Pastcho (\"Pentcho\")"
        string_val: "White, Mr. Richard Frasar"
        string_val: "Johansson, Mr. Gustaf Joel"
        string_val: "Gustafsson, Mr. Anders Vilhelm"
        string_val: "Mionoff, Mr. Stoytcho"
        string_val: "Salkjelsvik, Miss. Anna Kristine"
        string_val: "Moss, Mr. Albert Johan"
        string_val: "Rekic, Mr. Tido"
        string_val: "Moran, Miss. Bertha"
        string_val: "Porter, Mr. Walter Chamberlain"
        string_val: "Zabour, Miss. Hileni"
        string_val: "Barton, Mr. David John"
        string_val: "Jussila, Miss. Katriina"
        string_val: "Attalah, Miss. Malake"
        string_val: "Pekoniemi, Mr. Edvard"
        string_val: "Connors, Mr. Patrick"
        string_val: "Turpin, Mr. William John Robert"
        string_val: "Baxter, Mr. Quigg Edmond"
        string_val: "Andersson, Miss. Ellis Anna Maria"
        string_val: "Hickman, Mr. Stanley George"
        string_val: "Moore, Mr. Leonard Charles"
        string_val: "Nasser, Mr. Nicholas"
        string_val: "Webber, Miss. Susan"
        string_val: "White, Mr. Percival Wayland"
        string_val: "Nicola-Yarred, Master. Elias"
        string_val: "McMahon, Mr. Martin"
        string_val: "Madsen, Mr. Fridtjof Arne"
        string_val: "Peter, Miss. Anna"
        string_val: "Ekstrom, Mr. Johan"
        string_val: "Drazenoic, Mr. Jozef"
        string_val: "Coelho, Mr. Domingos Fernandeo"
        string_val: "Robins, Mrs. Alexander A (Grace Charity Laury)"
        string_val: "Weisz, Mrs. Leopold (Mathilde Francoise Pede)"
        string_val: "Sobey, Mr. Samuel James Hayden"
        string_val: "Richard, Mr. Emile"
        string_val: "Newsom, Miss. Helen Monypeny"
        string_val: "Futrelle, Mr. Jacques Heath"
        string_val: "Osen, Mr. Olaf Elon"
        string_val: "Giglio, Mr. Victor"
        string_val: "Boulos, Mrs. Joseph (Sultana)"
        string_val: "Nysten, Miss. Anna Sofia"
        string_val: "Hakkarainen, Mrs. Pekka Pietari (Elin Matilda Dolck)"
        string_val: "Burke, Mr. Jeremiah"
        string_val: "Andrew, Mr. Edgardo Samuel"
        string_val: "Nicholls, Mr. Joseph Charles"
        string_val: "Andersson, Mr. August Edvard (\"Wennerstrom\")"
        string_val: "Ford, Miss. Robina Maggie \"Ruby\""
        string_val: "Navratil, Mr. Michel (\"Louis M Hoffman\")"
        string_val: "Byles, Rev. Thomas Roussel Davids"
        string_val: "Bateman, Rev. Robert James"
        string_val: "Pears, Mrs. Thomas (Edith Wearne)"
        string_val: "Meo, Mr. Alfonzo"
        string_val: "van Billiard, Mr. Austin Blyler"
        string_val: "Olsen, Mr. Ole Martin"
        string_val: "Williams, Mr. Charles Duane"
        string_val: "Gilnagh, Miss. Katherine \"Katie\""
        string_val: "Corn, Mr. Harry"
        string_val: "Smiljanic, Mr. Mile"
        string_val: "Sage, Master. Thomas Henry"
        string_val: "Cribb, Mr. John Hatfield"
        string_val: "Watt, Mrs. James (Elizabeth \"Bessie\" Inglis Milne)"
        string_val: "Bengtsson, Mr. John Viktor"
        string_val: "Calic, Mr. Jovo"
        string_val: "Panula, Master. Eino Viljami"
        string_val: "Goldsmith, Master. Frank John William \"Frankie\""
        string_val: "Chibnall, Mrs. (Edith Martha Bowerman)"
        string_val: "Skoog, Mrs. William (Anna Bernhardina Karlsson)"
        string_val: "Baumann, Mr. John D"
        string_val: "Ling, Mr. Lee"
        string_val: "Van der hoef, Mr. Wyckoff"
        string_val: "Rice, Master. Arthur"
        string_val: "Johnson, Miss. Eleanor Ileen"
        string_val: "Sivola, Mr. Antti Wilhelm"
        string_val: "Smith, Mr. James Clinch"
        string_val: "Klasen, Mr. Klas Albin"
        string_val: "Lefebre, Master. Henry Forbes"
        string_val: "Isham, Miss. Ann Elizabeth"
        string_val: "Hale, Mr. Reginald"
        string_val: "Leonard, Mr. Lionel"
        string_val: "Sage, Miss. Constance Gladys"
        string_val: "Pernot, Mr. Rene"
        string_val: "Asplund, Master. Clarence Gustaf Hugo"
        string_val: "Becker, Master. Richard F"
        string_val: "Kink-Heilmann, Miss. Luise Gretchen"
        string_val: "Rood, Mr. Hugh Roscoe"
        string_val: "O\'Brien, Mrs. Thomas (Johanna \"Hannah\" Godfrey)"
        string_val: "Romaine, Mr. Charles Hallace (\"Mr C Rolmane\")"
        string_val: "Bourke, Mr. John"
        string_val: "Turcin, Mr. Stjepan"
        string_val: "Pinsky, Mrs. (Rosa)"
        string_val: "Carbines, Mr. William"
        string_val: "Andersen-Jensen, Miss. Carla Christine Nielsine"
        string_val: "Navratil, Master. Michel M"
        string_val: "Brown, Mrs. James Joseph (Margaret Tobin)"
        string_val: "Lurette, Miss. Elise"
        string_val: "Mernagh, Mr. Robert"
        string_val: "Olsen, Mr. Karl Siegwart Andreas"
        string_val: "Madigan, Miss. Margaret \"Maggie\""
        string_val: "Yrois, Miss. Henriette (\"Mrs Harbeck\")"
        string_val: "Vande Walle, Mr. Nestor Cyriel"
        string_val: "Sage, Mr. Frederick"
        string_val: "Johanson, Mr. Jakob Alfred"
        string_val: "Youseff, Mr. Gerious"
        string_val: "Cohen, Mr. Gurshon \"Gus\""
        string_val: "Strom, Miss. Telma Matilda"
        string_val: "Backstrom, Mr. Karl Alfred"
        string_val: "Albimona, Mr. Nassef Cassem"
        string_val: "Carr, Miss. Helen \"Ellen\""
        string_val: "Blank, Mr. Henry"
        string_val: "Ali, Mr. Ahmed"
        string_val: "Cameron, Miss. Clear Annie"
        string_val: "Perkin, Mr. John Henry"
        string_val: "Givard, Mr. Hans Kristensen"
        string_val: "Kiernan, Mr. Philip"
        string_val: "Newell, Miss. Madeleine"
        string_val: "Honkanen, Miss. Eliina"
        string_val: "Jacobsohn, Mr. Sidney Samuel"
        string_val: "Bazzani, Miss. Albina"
        string_val: "Harris, Mr. Walter"
        string_val: "Sunderland, Mr. Victor Francis"
        string_val: "Bracken, Mr. James H"
        string_val: "Green, Mr. George Henry"
        string_val: "Nenkoff, Mr. Christo"
        string_val: "Hoyt, Mr. Frederick Maxfield"
        string_val: "Berglund, Mr. Karl Ivar Sven"
        string_val: "Mellors, Mr. William John"
        string_val: "Lovell, Mr. John Hall (\"Henry\")"
        string_val: "Fahlstrom, Mr. Arne Jonas"
        string_val: "Lefebre, Miss. Mathilde"
        string_val: "Harris, Mrs. Henry Birkhardt (Irene Wallach)"
        string_val: "Larsson, Mr. Bengt Edvin"
        string_val: "Sjostedt, Mr. Ernst Adolf"
        string_val: "Asplund, Miss. Lillian Gertrud"
        string_val: "Leyson, Mr. Robert William Norman"
        string_val: "Harknett, Miss. Alice Phoebe"
        string_val: "Hold, Mr. Stephen"
        string_val: "Collyer, Miss. Marjorie \"Lottie\""
        string_val: "Pengelly, Mr. Frederick William"
        string_val: "Hunt, Mr. George Henry"
        string_val: "Zabour, Miss. Thamine"
        string_val: "Murphy, Miss. Katherine \"Kate\""
        string_val: "Coleridge, Mr. Reginald Charles"
        string_val: "Maenpaa, Mr. Matti Alexanteri"
        string_val: "Attalah, Mr. Sleiman"
        string_val: "Minahan, Dr. William Edward"
        string_val: "Lindahl, Miss. Agda Thorilda Viktoria"
        string_val: "Hamalainen, Mrs. William (Anna)"
        string_val: "Beckwith, Mr. Richard Leonard"
        string_val: "Carter, Rev. Ernest Courtenay"
        string_val: "Reed, Mr. James George"
        string_val: "Strom, Mrs. Wilhelm (Elna Matilda Persson)"
        string_val: "Stead, Mr. William Thomas"
        string_val: "Lobb, Mr. William Arthur"
        string_val: "Rosblom, Mrs. Viktor (Helena Wilhelmina)"
        string_val: "Touma, Mrs. Darwis (Hanne Youssef Razi)"
        string_val: "Thorne, Mrs. Gertrude Maybelle"
        string_val: "Cherry, Miss. Gladys"
        string_val: "Ward, Miss. Anna"
        string_val: "Parrish, Mrs. (Lutie Davis)"
        string_val: "Smith, Mr. Thomas"
        string_val: "Asplund, Master. Edvin Rojj Felix"
        string_val: "Taussig, Mr. Emil"
        string_val: "Harrison, Mr. William"
        string_val: "Henry, Miss. Delia"
        string_val: "Reeves, Mr. David"
        string_val: "Panula, Mr. Ernesti Arvid"
        string_val: "Persson, Mr. Ernst Ulrik"
        string_val: "Graham, Mrs. William Thompson (Edith Junkins)"
        string_val: "Bissette, Miss. Amelia"
        string_val: "Cairns, Mr. Alexander"
        string_val: "Tornquist, Mr. William Henry"
        string_val: "Mellinger, Mrs. (Elizabeth Anne Maidment)"
        string_val: "Natsch, Mr. Charles H"
        string_val: "Healy, Miss. Hanora \"Nora\""
        string_val: "Andrews, Miss. Kornelia Theodosia"
        string_val: "Lindblom, Miss. Augusta Charlotta"
        string_val: "Parkes, Mr. Francis \"Frank\""
        string_val: "Rice, Master. Eric"
        string_val: "Abbott, Mrs. Stanton (Rosa Hunt)"
        string_val: "Duane, Mr. Frank"
        string_val: "Olsson, Mr. Nils Johan Goransson"
        string_val: "de Pelsmaeker, Mr. Alfons"
        string_val: "Dorking, Mr. Edward Arthur"
        string_val: "Smith, Mr. Richard William"
        string_val: "Stankovic, Mr. Ivan"
        string_val: "de Mulder, Mr. Theodore"
        string_val: "Naidenoff, Mr. Penko"
        string_val: "Hosono, Mr. Masabumi"
        string_val: "Connolly, Miss. Kate"
        string_val: "Barber, Miss. Ellen \"Nellie\""
        string_val: "Bishop, Mrs. Dickinson H (Helen Walton)"
        string_val: "Levy, Mr. Rene Jacques"
        string_val: "Haas, Miss. Aloisia"
        string_val: "Mineff, Mr. Ivan"
        string_val: "Lewy, Mr. Ervin G"
        string_val: "Hanna, Mr. Mansour"
        string_val: "Allison, Miss. Helen Loraine"
        string_val: "Saalfeld, Mr. Adolphe"
        string_val: "Baxter, Mrs. James (Helene DeLaudeniere Chaput)"
        string_val: "Kelly, Miss. Anna Katherine \"Annie Kate\""
        string_val: "McCoy, Mr. Bernard"
        string_val: "Johnson, Mr. William Cahoone Jr"
        string_val: "Keane, Miss. Nora A"
        string_val: "Williams, Mr. Howard Hugh \"Harry\""
        string_val: "Allison, Master. Hudson Trevor"
        string_val: "Fleming, Miss. Margaret"
        string_val: "Penasco y Castellana, Mrs. Victor de Satode (Maria Josefa Perez de Soto y Vallejo)"
        string_val: "Abelson, Mr. Samuel"
        string_val: "Francatelli, Miss. Laura Mabel"
        string_val: "Hays, Miss. Margaret Bechstein"
        string_val: "Ryerson, Miss. Emily Borie"
        string_val: "Lahtinen, Mrs. William (Anna Sylfven)"
        string_val: "Hendekovic, Mr. Ignjac"
        string_val: "Hart, Mr. Benjamin"
        string_val: "Nilsson, Miss. Helmina Josefina"
        string_val: "Kantor, Mrs. Sinai (Miriam Sternin)"
        string_val: "Moraweck, Dr. Ernest"
        string_val: "Wick, Miss. Mary Natalie"
        string_val: "Spedden, Mrs. Frederic Oakley (Margaretta Corning Stone)"
        string_val: "Dennis, Mr. Samuel"
        string_val: "Danoff, Mr. Yoto"
        string_val: "Slayter, Miss. Hilda Mary"
        string_val: "Caldwell, Mrs. Albert Francis (Sylvia Mae Harbaugh)"
        string_val: "Sage, Mr. George John Jr"
        string_val: "Young, Miss. Marie Grice"
        string_val: "Nysveen, Mr. Johan Hansen"
        string_val: "Ball, Mrs. (Ada E Hall)"
        string_val: "Goldsmith, Mrs. Frank John (Emily Alice Brown)"
        string_val: "Hippach, Miss. Jean Gertrude"
        string_val: "McCoy, Miss. Agnes"
        string_val: "Partner, Mr. Austen"
        string_val: "Graham, Mr. George Edward"
        string_val: "Vander Planke, Mr. Leo Edmondus"
        string_val: "Frauenthal, Mrs. Henry William (Clara Heinsheimer)"
        string_val: "Denkoff, Mr. Mitto"
        string_val: "Pears, Mr. Thomas Clinton"
        string_val: "Burns, Miss. Elizabeth Margaret"
        string_val: "Dahl, Mr. Karl Edwart"
        string_val: "Blackwell, Mr. Stephen Weart"
        string_val: "Navratil, Master. Edmond Roger"
        string_val: "Fortune, Miss. Alice Elizabeth"
        string_val: "Collander, Mr. Erik Gustaf"
        string_val: "Sedgwick, Mr. Charles Frederick Waddington"
        string_val: "Fox, Mr. Stanley Hubert"
        string_val: "Brown, Miss. Amelia \"Mildred\""
        string_val: "Smith, Miss. Marion Elsie"
        string_val: "Davison, Mrs. Thomas Henry (Mary E Finck)"
        string_val: "Coutts, Master. William Loch \"William\""
        string_val: "Dimic, Mr. Jovan"
        string_val: "Odahl, Mr. Nils Martin"
        string_val: "Williams-Lambert, Mr. Fletcher Fellows"
        string_val: "Elias, Mr. Tannous"
        string_val: "Arnold-Franchi, Mr. Josef"
        string_val: "Yousif, Mr. Wazli"
        string_val: "Vanden Steen, Mr. Leo Peter"
        string_val: "Bowerman, Miss. Elsie Edith"
        string_val: "Funk, Miss. Annie Clemmer"
        string_val: "McGovern, Miss. Mary"
        string_val: "Mockler, Miss. Helen Mary \"Ellie\""
        string_val: "Skoog, Mr. Wilhelm"
        string_val: "del Carlo, Mr. Sebastiano"
        string_val: "Barbara, Mrs. (Catherine David)"
        string_val: "Asim, Mr. Adola"
        string_val: "O\'Brien, Mr. Thomas"
        string_val: "Adahl, Mr. Mauritz Nils Martin"
        string_val: "Warren, Mrs. Frank Manley (Anna Sophia Atkinson)"
        string_val: "Moussa, Mrs. (Mantoura Boulos)"
        string_val: "Jermyn, Miss. Annie"
        string_val: "Aubart, Mme. Leontine Pauline"
        string_val: "Harder, Mr. George Achilles"
        string_val: "Wiklund, Mr. Jakob Alfred"
        string_val: "Beavan, Mr. William Thomas"
        string_val: "Ringhini, Mr. Sante"
        string_val: "Palsson, Miss. Stina Viola"
        string_val: "Meyer, Mrs. Edgar Joseph (Leila Saks)"
        string_val: "Landergren, Miss. Aurora Adelia"
        string_val: "Widener, Mr. Harry Elkins"
        string_val: "Betros, Mr. Tannous"
        string_val: "Gustafsson, Mr. Karl Gideon"
        string_val: "Bidois, Miss. Rosalie"
        string_val: "Nakid, Miss. Maria (\"Mary\")"
        string_val: "Tikkanen, Mr. Juho"
        string_val: "Holverson, Mrs. Alexander Oskar (Mary Aline Towner)"
        string_val: "Plotcharsky, Mr. Vasil"
        string_val: "Davies, Mr. Charles Henry"
        string_val: "Goodwin, Master. Sidney Leonard"
        string_val: "Buss, Miss. Kate"
        string_val: "Sadlier, Mr. Matthew"
        string_val: "Lehmann, Miss. Bertha"
        string_val: "Carter, Mr. William Ernest"
        string_val: "Jansson, Mr. Carl Olof"
        string_val: "Gustafsson, Mr. Johan Birger"
        string_val: "Newell, Miss. Marjorie"
        string_val: "Sandstrom, Mrs. Hjalmar (Agnes Charlotta Bengtsson)"
        string_val: "Johansson, Mr. Erik"
        string_val: "Olsson, Miss. Elina"
        string_val: "McKane, Mr. Peter David"
        string_val: "Pain, Dr. Alfred"
        string_val: "Trout, Mrs. William H (Jessie L)"
        string_val: "Niskanen, Mr. Juha"
        string_val: "Adams, Mr. John"
        string_val: "Jussila, Miss. Mari Aina"
        string_val: "Hakkarainen, Mr. Pekka Pietari"
        string_val: "Oreskovic, Miss. Marija"
        string_val: "Gale, Mr. Shadrach"
        string_val: "Widegren, Mr. Carl/Charles Peter"
        string_val: "Richards, Master. William Rowe"
        string_val: "Birkeland, Mr. Hans Martin Monsen"
        string_val: "Lefebre, Miss. Ida"
        string_val: "Sdycoff, Mr. Todor"
        string_val: "Hart, Mr. Henry"
        string_val: "Minahan, Miss. Daisy E"
        string_val: "Cunningham, Mr. Alfred Fleming"
        string_val: "Sundman, Mr. Johan Julian"
        string_val: "Meek, Mrs. Thomas (Annie Louise Rowley)"
        string_val: "Drew, Mrs. James Vivian (Lulu Thorne Christian)"
        string_val: "Silven, Miss. Lyyli Karoliina"
        string_val: "Matthews, Mr. William John"
        string_val: "Van Impe, Miss. Catharina"
        string_val: "Gheorgheff, Mr. Stanio"
        string_val: "Charters, Mr. David"
        string_val: "Zimmerman, Mr. Leo"
        string_val: "Danbom, Mrs. Ernst Gilbert (Anna Sigrid Maria Brogren)"
        string_val: "Rosblom, Mr. Viktor Richard"
        string_val: "Wiseman, Mr. Phillippe"
        string_val: "Clarke, Mrs. Charles V (Ada Maria Winfield)"
        string_val: "Phillips, Miss. Kate Florence (\"Mrs Kate Louise Phillips Marshall\")"
        string_val: "Flynn, Mr. James"
        string_val: "Pickard, Mr. Berk (Berk Trembisky)"
        string_val: "Bjornstrom-Steffansson, Mr. Mauritz Hakan"
        string_val: "Thorneycroft, Mrs. Percival (Florence Kate White)"
        string_val: "Louch, Mrs. Charles Alexander (Alice Adelaide Slow)"
        string_val: "Kallio, Mr. Nikolai Erland"
        string_val: "Silvey, Mr. William Baird"
        string_val: "Carter, Miss. Lucile Polk"
        string_val: "Ford, Miss. Doolina Margaret \"Daisy\""
        string_val: "Richards, Mrs. Sidney (Emily Hocking)"
        string_val: "Fortune, Mr. Mark"
        string_val: "Kvillner, Mr. Johan Henrik Johannesson"
        string_val: "Hart, Mrs. Benjamin (Esther Ada Bloomfield)"
        string_val: "Hampe, Mr. Leon"
        string_val: "Petterson, Mr. Johan Emil"
        string_val: "Reynaldo, Ms. Encarnacion"
        string_val: "Johannesen-Bratthammer, Mr. Bernt"
        string_val: "Dodge, Master. Washington"
        string_val: "Mellinger, Miss. Madeleine Violet"
        string_val: "Seward, Mr. Frederic Kimber"
        string_val: "Baclini, Miss. Marie Catherine"
        string_val: "Peuchen, Major. Arthur Godfrey"
        string_val: "West, Mr. Edwy Arthur"
        string_val: "Hagland, Mr. Ingvald Olai Olsen"
        string_val: "Foreman, Mr. Benjamin Laventall"
        string_val: "Goldenberg, Mr. Samuel L"
        string_val: "Peduzzi, Mr. Joseph"
        string_val: "Jalsevac, Mr. Ivan"
        string_val: "Millet, Mr. Francis Davis"
        string_val: "Kenyon, Mrs. Frederick R (Marion)"
        string_val: "Toomey, Miss. Ellen"
        string_val: "O\'Connor, Mr. Maurice"
        string_val: "Anderson, Mr. Harry"
        string_val: "Morley, Mr. William"
        string_val: "Gee, Mr. Arthur H"
        string_val: "Milling, Mr. Jacob Christian"
        string_val: "Maisner, Mr. Simon"
        string_val: "Goncalves, Mr. Manuel Estanslas"
        string_val: "Campbell, Mr. William"
        string_val: "Smart, Mr. John Montgomery"
        string_val: "Scanlan, Mr. James"
        string_val: "Baclini, Miss. Helene Barbara"
        string_val: "Keefe, Mr. Arthur"
        string_val: "Cacic, Mr. Luka"
        string_val: "West, Mrs. Edwy Arthur (Ada Mary Worth)"
        string_val: "Jerwan, Mrs. Amin S (Marie Marthe Thuillard)"
        string_val: "Strandberg, Miss. Ida Sofia"
        string_val: "Clifford, Mr. George Quincy"
        string_val: "Renouf, Mr. Peter Henry"
        string_val: "Braund, Mr. Lewis Richard"
        string_val: "Karlsson, Mr. Nils August"
        string_val: "Hirvonen, Miss. Hildur E"
        string_val: "Goodwin, Master. Harold Victor"
        string_val: "Frost, Mr. Anthony Wood \"Archie\""
        string_val: "Rouse, Mr. Richard Henry"
        string_val: "Turkula, Mrs. (Hedwig)"
        string_val: "Bishop, Mr. Dickinson H"
        string_val: "Lefebre, Miss. Jeannie"
        string_val: "Hoyt, Mrs. Frederick Maxfield (Jane Anne Forby)"
        string_val: "Kent, Mr. Edward Austin"
        string_val: "Somerton, Mr. Francis William"
        string_val: "Coutts, Master. Eden Leslie \"Neville\""
        string_val: "Hagland, Mr. Konrad Mathias Reiersen"
        string_val: "Windelov, Mr. Einar"
        string_val: "Molson, Mr. Harry Markland"
        string_val: "Artagaveytia, Mr. Ramon"
        string_val: "Stanley, Mr. Edward Roland"
        string_val: "Yousseff, Mr. Gerious"
        string_val: "Eustis, Miss. Elizabeth Mussey"
        string_val: "Shellard, Mr. Frederick William"
        string_val: "Allison, Mrs. Hudson J C (Bessie Waldo Daniels)"
        string_val: "Svensson, Mr. Olof"
        string_val: "Calic, Mr. Petar"
        string_val: "Canavan, Miss. Mary"
        string_val: "O\'Sullivan, Miss. Bridget Mary"
        string_val: "Laitinen, Miss. Kristina Sofia"
        string_val: "Maioni, Miss. Roberta"
        string_val: "Penasco y Castellana, Mr. Victor de Satode"
        string_val: "Quick, Mrs. Frederick Charles (Jane Richards)"
        string_val: "Bradley, Mr. George (\"George Arthur Brayton\")"
        string_val: "Olsen, Mr. Henry Margido"
        string_val: "Lang, Mr. Fang"
        string_val: "Daly, Mr. Eugene Patrick"
        string_val: "Webber, Mr. James"
        string_val: "McGough, Mr. James Robert"
        string_val: "Rothschild, Mrs. Martin (Elizabeth L. Barrett)"
        string_val: "Coleff, Mr. Satio"
        string_val: "Walker, Mr. William Anderson"
        string_val: "Lemore, Mrs. (Amelia Milley)"
        string_val: "Ryan, Mr. Patrick"
        string_val: "Angle, Mrs. William A (Florence \"Mary\" Agnes Hughes)"
        string_val: "Pavlovic, Mr. Stefo"
        string_val: "Perreault, Miss. Anne"
        string_val: "Vovk, Mr. Janko"
        string_val: "Lahoud, Mr. Sarkis"
        string_val: "Hippach, Mrs. Louis Albert (Ida Sophia Fischer)"
        string_val: "Kassem, Mr. Fared"
        string_val: "Farrell, Mr. James"
        string_val: "Ridsdale, Miss. Lucy"
        string_val: "Farthing, Mr. John"
        string_val: "Salonen, Mr. Johan Werner"
        string_val: "Hocking, Mr. Richard George"
        string_val: "Quick, Miss. Phyllis May"
        string_val: "Toufik, Mr. Nakli"
        string_val: "Elias, Mr. Joseph Jr"
        string_val: "Peter, Mrs. Catherine (Catherine Rizk)"
        string_val: "Cacic, Miss. Marija"
        string_val: "Hart, Miss. Eva Miriam"
        string_val: "Butt, Major. Archibald Willingham"
        string_val: "LeRoy, Miss. Bertha"
        string_val: "Risien, Mr. Samuel Beard"
        string_val: "Frolicher, Miss. Hedwig Margaritha"
        string_val: "Crosby, Miss. Harriet R"
        string_val: "Andersson, Miss. Ingeborg Constanzia"
        string_val: "Andersson, Miss. Sigrid Elisabeth"
        string_val: "Beane, Mr. Edward"
        string_val: "Douglas, Mr. Walter Donald"
        string_val: "Nicholson, Mr. Arthur Ernest"
        string_val: "Beane, Mrs. Edward (Ethel Clarke)"
        string_val: "Padro y Manent, Mr. Julian"
        string_val: "Goldsmith, Mr. Frank John"
        string_val: "Davies, Master. John Morgan Jr"
        string_val: "Thayer, Mr. John Borland Jr"
        string_val: "Sharp, Mr. Percival James R"
        string_val: "O\'Brien, Mr. Timothy"
        string_val: "Leeni, Mr. Fahim (\"Philip Zenni\")"
        string_val: "Ohman, Miss. Velin"
        string_val: "Wright, Mr. George"
        string_val: "Duff Gordon, Lady. (Lucille Christiana Sutherland) (\"Mrs Morgan\")"
        string_val: "Robbins, Mr. Victor"
        string_val: "Taussig, Mrs. Emil (Tillie Mandelbaum)"
        string_val: "de Messemaeker, Mrs. Guillaume Joseph (Emma)"
        string_val: "Morrow, Mr. Thomas Rowan"
        string_val: "Sivic, Mr. Husein"
        string_val: "Norman, Mr. Robert Douglas"
        string_val: "Simmons, Mr. John"
        string_val: "Meanwell, Miss. (Marion Ogden)"
        string_val: "Davies, Mr. Alfred J"
        string_val: "Stoytcheff, Mr. Ilia"
        string_val: "Palsson, Mrs. Nils (Alma Cornelia Berglund)"
        string_val: "Doharr, Mr. Tannous"
        string_val: "Jonsson, Mr. Carl"
        string_val: "Harris, Mr. George"
        string_val: "Appleton, Mrs. Edward Dale (Charlotte Lamson)"
        string_val: "Flynn, Mr. John Irwin (\"Irving\")"
        string_val: "Kelly, Miss. Mary"
        string_val: "Rush, Mr. Alfred George John"
        string_val: "Patchett, Mr. George"
        string_val: "Garside, Miss. Ethel"
        string_val: "Silvey, Mrs. William Baird (Alice Munger)"
        string_val: "Caram, Mrs. Joseph (Maria Elias)"
